{
  "version": "1.0",
  "truncation": null,
  "padding": null,
  "added_tokens": [
    {
      "id": 0,
      "content": "<unk>",
      "single_word": false,
      "lstrip": false,
      "rstrip": false,
      "normalized": false,
      "special": true
    },
    {
      "id": 1,
      "content": "<s>",
      "single_word": false,
      "lstrip": false,
      "rstrip": false,
      "normalized": false,
      "special": true
    },
    {
      "id": 2,
      "content": "</s>",
      "single_word": false,
      "lstrip": false,
      "rstrip": false,
      "normalized": false,
      "special": true
    },
    {
      "id": 3,
      "content": "<|im_start|>",
      "single_word": false,
      "lstrip": false,
      "rstrip": false,
      "normalized": false,
      "special": true
    },
    {
      "id": 4,
      "content": "<|im_end|>",
      "single_word": false,
      "lstrip": false,
      "rstrip": false,
      "normalized": false,
      "special": true
    }
  ],
  "normalizer": {
    "type": "NFKC"
  },
  "pre_tokenizer": {
    "type": "ByteLevel",
    "add_prefix_space": false,
    "trim_offsets": true,
    "use_regex": true
  },
  "post_processor": null,
  "decoder": {
    "type": "ByteLevel",
    "add_prefix_space": true,
    "trim_offsets": true,
    "use_regex": true
  },
  "model": {
    "type": "BPE",
    "dropout": null,
    "unk_token": "<unk>",
    "continuing_subword_prefix": null,
    "end_of_word_suffix": null,
    "fuse_unk": false,
    "byte_fallback": false,
    "ignore_merges": false,
    "vocab": {
      "<unk>": 0,
      "<s>": 1,
      "</s>": 2,
      "<|im_start|>": 3,
      "<|im_end|>": 4,
      "!": 5,
      "\"": 6,
      "#": 7,
      "$": 8,
      "%": 9,
      "&": 10,
      "'": 11,
      "(": 12,
      ")": 13,
      "*": 14,
      "+": 15,
      ",": 16,
      "-": 17,
      ".": 18,
      "/": 19,
      "0": 20,
      "1": 21,
      "2": 22,
      "3": 23,
      "4": 24,
      "5": 25,
      "6": 26,
      "7": 27,
      "8": 28,
      "9": 29,
      ":": 30,
      ";": 31,
      "<": 32,
      "=": 33,
      ">": 34,
      "?": 35,
      "@": 36,
      "A": 37,
      "B": 38,
      "C": 39,
      "D": 40,
      "E": 41,
      "F": 42,
      "G": 43,
      "H": 44,
      "I": 45,
      "J": 46,
      "K": 47,
      "L": 48,
      "M": 49,
      "N": 50,
      "O": 51,
      "P": 52,
      "Q": 53,
      "R": 54,
      "S": 55,
      "T": 56,
      "U": 57,
      "V": 58,
      "W": 59,
      "X": 60,
      "Y": 61,
      "Z": 62,
      "[": 63,
      "\\": 64,
      "]": 65,
      "^": 66,
      "_": 67,
      "`": 68,
      "a": 69,
      "b": 70,
      "c": 71,
      "d": 72,
      "e": 73,
      "f": 74,
      "g": 75,
      "h": 76,
      "i": 77,
      "j": 78,
      "k": 79,
      "l": 80,
      "m": 81,
      "n": 82,
      "o": 83,
      "p": 84,
      "q": 85,
      "r": 86,
      "s": 87,
      "t": 88,
      "u": 89,
      "v": 90,
      "w": 91,
      "x": 92,
      "y": 93,
      "z": 94,
      "{": 95,
      "|": 96,
      "}": 97,
      "~": 98,
      "¡": 99,
      "¢": 100,
      "£": 101,
      "¤": 102,
      "¥": 103,
      "¦": 104,
      "§": 105,
      "¨": 106,
      "©": 107,
      "ª": 108,
      "«": 109,
      "¬": 110,
      "®": 111,
      "¯": 112,
      "°": 113,
      "±": 114,
      "²": 115,
      "³": 116,
      "´": 117,
      "µ": 118,
      "¶": 119,
      "·": 120,
      "¸": 121,
      "¹": 122,
      "º": 123,
      "»": 124,
      "¼": 125,
      "½": 126,
      "¾": 127,
      "¿": 128,
      "À": 129,
      "Á": 130,
      "Â": 131,
      "Ã": 132,
      "Ä": 133,
      "Å": 134,
      "Æ": 135,
      "Ç": 136,
      "È": 137,
      "É": 138,
      "Ê": 139,
      "Ë": 140,
      "Ì": 141,
      "Í": 142,
      "Î": 143,
      "Ï": 144,
      "Ð": 145,
      "Ñ": 146,
      "Ò": 147,
      "Ó": 148,
      "Ô": 149,
      "Õ": 150,
      "Ö": 151,
      "×": 152,
      "Ø": 153,
      "Ù": 154,
      "Ú": 155,
      "Û": 156,
      "Ü": 157,
      "Ý": 158,
      "Þ": 159,
      "ß": 160,
      "à": 161,
      "á": 162,
      "â": 163,
      "ã": 164,
      "ä": 165,
      "å": 166,
      "æ": 167,
      "ç": 168,
      "è": 169,
      "é": 170,
      "ê": 171,
      "ë": 172,
      "ì": 173,
      "í": 174,
      "î": 175,
      "ï": 176,
      "ð": 177,
      "ñ": 178,
      "ò": 179,
      "ó": 180,
      "ô": 181,
      "õ": 182,
      "ö": 183,
      "÷": 184,
      "ø": 185,
      "ù": 186,
      "ú": 187,
      "û": 188,
      "ü": 189,
      "ý": 190,
      "þ": 191,
      "ÿ": 192,
      "Ā": 193,
      "ā": 194,
      "Ă": 195,
      "ă": 196,
      "Ą": 197,
      "ą": 198,
      "Ć": 199,
      "ć": 200,
      "Ĉ": 201,
      "ĉ": 202,
      "Ċ": 203,
      "ċ": 204,
      "Č": 205,
      "č": 206,
      "Ď": 207,
      "ď": 208,
      "Đ": 209,
      "đ": 210,
      "Ē": 211,
      "ē": 212,
      "Ĕ": 213,
      "ĕ": 214,
      "Ė": 215,
      "ė": 216,
      "Ę": 217,
      "ę": 218,
      "Ě": 219,
      "ě": 220,
      "Ĝ": 221,
      "ĝ": 222,
      "Ğ": 223,
      "ğ": 224,
      "Ġ": 225,
      "ġ": 226,
      "Ģ": 227,
      "ģ": 228,
      "Ĥ": 229,
      "ĥ": 230,
      "Ħ": 231,
      "ħ": 232,
      "Ĩ": 233,
      "ĩ": 234,
      "Ī": 235,
      "ī": 236,
      "Ĭ": 237,
      "ĭ": 238,
      "Į": 239,
      "į": 240,
      "İ": 241,
      "ı": 242,
      "Ĳ": 243,
      "ĳ": 244,
      "Ĵ": 245,
      "ĵ": 246,
      "Ķ": 247,
      "ķ": 248,
      "ĸ": 249,
      "Ĺ": 250,
      "ĺ": 251,
      "Ļ": 252,
      "ļ": 253,
      "Ľ": 254,
      "ľ": 255,
      "Ŀ": 256,
      "ŀ": 257,
      "Ł": 258,
      "ł": 259,
      "Ń": 260,
      "ä¸": 261,
      "ãĢ": 262,
      "çļ": 263,
      "çļĦ": 264,
      "äº": 265,
      "æľ": 266,
      "åı": 267,
      "ãĢĤ": 268,
      "åħ": 269,
      "ä»": 270,
      "å¤": 271,
      "å®": 272,
      "åĪ": 273,
      "è¿": 274,
      "åľ": 275,
      "åĲ": 276,
      "ä½": 277,
      "æĺ": 278,
      "çĶ": 279,
      "åĽ": 280,
      "æĪ": 281,
      "ä¹": 282,
      "å°": 283,
      "å¹": 284,
      "æĹ": 285,
      "åĬ": 286,
      "æĸ": 287,
      "ç»": 288,
      "ä¸Ģ": 289,
      "ãĢģ": 290,
      "åį": 291,
      "è¯": 292,
      "âĢ": 293,
      "æĺ¯": 294,
      "ä¼": 295,
      "è®": 296,
      "åŃ": 297,
      "åľ¨": 298,
      "æĿ": 299,
      "å¸": 300,
      "äºº": 301,
      "æī": 302,
      "æľī": 303,
      "ä¸į": 304,
      "å¼": 305,
      "å¥": 306,
      "éĩ": 307,
      "äºĨ": 308,
      "å·": 309,
      "åĨ": 310,
      "å¾": 311,
      "åº": 312,
      "ä¸Ń": 313,
      "å¤§": 314,
      "åĩ": 315,
      "åĮ": 316,
      "éĢ": 317,
      "å¹´": 318,
      "è¡": 319,
      "èĢ": 320,
      "åĽ½": 321,
      "çī": 322,
      "çĽ": 323,
      "å¯": 324,
      "è§": 325,
      "èµ": 326,
      "ä¸º": 327,
      "åĴ": 328,
      "æķ": 329,
      "ĥ½": 330,
      "è´": 331,
      "çİ": 332,
      "æĬ": 333,
      "æĢ": 334,
      "ç§": 335,
      "çº": 336,
      "æĶ": 337,
      "å½": 338,
      "åĴĮ": 339,
      "å±": 340,
      "æł": 341,
      "æŃ": 342,
      "åİ": 343,
      "éĻ": 344,
      "éĹ": 345,
      "ä¸Ĭ": 346,
      "å¿": 347,
      "æ°": 348,
      "ä¸ª": 349,
      "èĩ": 350,
      "åĳ": 351,
      "ä»¥": 352,
      "éĿ": 353,
      "æ³": 354,
      "æĹ¶": 355,
      "âĢľ": 356,
      "è¿Ļ": 357,
      "âĢĿ": 358,
      "è½": 359,
      "æĪĳ": 360,
      "ä¼ļ": 361,
      "çľ": 362,
      "æµ": 363,
      "æ²": 364,
      "è¦": 365,
      "ä¿": 366,
      "æİ": 367,
      "æĭ": 368,
      "æĿ¥": 369,
      "æĥ": 370,
      "åĪ°": 371,
      "è¦ģ": 372,
      "çĶŁ": 373,
      "ç½": 374,
      "é¢": 375,
      "åıĳ": 376,
      "æŀ": 377,
      "åĵ": 378,
      "çĲ": 379,
      "åĩº": 380,
      "20": 381,
      "ç«": 382,
      "æ¯": 383,
      "æĹ¥": 384,
      "çĶ¨": 385,
      "è¡Į": 386,
      "å®¶": 387,
      "åŃ¦": 388,
      "è¾": 389,
      "éĺ": 390,
      "åī": 391,
      "åľ°": 392,
      "æĪĲ": 393,
      "èĥ½": 394,
      "çŃ": 395,
      "å¦": 396,
      "åŁ": 397,
      "å¯¹": 398,
      "ä¸ļ": 399,
      "åı¯": 400,
      "ä½ľ": 401,
      "æ¸": 402,
      "ç¾": 403,
      "äºİ": 404,
      "ä¸ĭ": 405,
      "æĮ": 406,
      "æ¬": 407,
      "åĲİ": 408,
      "éģ": 409,
      "å¤ļ": 410,
      "ä»ĸ": 411,
      "æĸ°": 412,
      "æ´": 413,
      "èĩª": 414,
      "æĦ": 415,
      "..": 416,
      "å°ı": 417,
      "æ±": 418,
      "æľĪ": 419,
      "å°±": 420,
      "åħ¬": 421,
      "æĸ¹": 422,
      "åĬ¨": 423,
      "ä»¬": 424,
      "åŃĲ": 425,
      "ä¹Ł": 426,
      "åĪĨ": 427,
      "ä¾": 428,
      "é«": 429,
      "éĥ": 430,
      "èĤ": 431,
      "ç¬": 432,
      "å¼Ģ": 433,
      "è¿ĩ": 434,
      "éĽ": 435,
      "é«ĺ": 436,
      "æľ¬": 437,
      "éķ": 438,
      "æĽ": 439,
      "çİ°": 440,
      "åģ": 441,
      "åħ¨": 442,
      "å·¥": 443,
      "ç¾İ": 444,
      "ä¸»": 445,
      "çĤ": 446,
      "æľº": 447,
      "ä¹ĭ": 448,
      "è·": 449,
      "å¸Ĥ": 450,
      "ç»ı": 451,
      "èī": 452,
      "çĲĨ": 453,
      "ä¸İ": 454,
      "æı": 455,
      "å¤©": 456,
      "ç®": 457,
      "è¿Ľ": 458,
      "æ³ķ": 459,
      "ä½ĵ": 460,
      "éĥ¨": 461,
      "éĿ¢": 462,
      "æĻ": 463,
      "å¥½": 464,
      "è¶": 465,
      "æľĢ": 466,
      "éĥ½": 467,
      "ç½ĳ": 468,
      "åīį": 469,
      "å§": 470,
      "åĿ": 471,
      "åĲĮ": 472,
      "è¯´": 473,
      "åĬĽ": 474,
      "è°": 475,
      "å®ŀ": 476,
      "é¡": 477,
      "èģ": 478,
      "çŃī": 479,
      "ç¤": 480,
      "å¾Ĺ": 481,
      "èĢĮ": 482,
      "çĿ": 483,
      "æĸĩ": 484,
      "çĶµ": 485,
      "çŁ": 486,
      "äº§": 487,
      "å¿ĥ": 488,
      "å»": 489,
      "åĲĪ": 490,
      "å¥³": 491,
      "åħ¶": 492,
      "éķ¿": 493,
      "ä½ł": 494,
      "åĢ": 495,
      "å®ļ": 496,
      "19": 497,
      "éģĵ": 498,
      "æĢ§": 499,
      "åĬł": 500,
      "ç¬¬": 501,
      "éĤ": 502,
      "ç¨": 503,
      "æį": 504,
      "èĢħ": 505,
      "çĪ": 506,
      "åĮĸ": 507,
      "åĮº": 508,
      "åľº": 509,
      "é£": 510,
      "æīĢ": 511,
      "çĻ": 512,
      "äºĭ": 513,
      "è¢": 514,
      "çľĭ": 515,
      "åĵģ": 516,
      "æĥħ": 517,
      "åĨħ": 518,
      "å¦Ĥ": 519,
      "èĬ": 520,
      "éĹ´": 521,
      "åħ³": 522,
      "ç©": 523,
      "éĩį": 524,
      "åķ": 525,
      "åº¦": 526,
      "çĤ¹": 527,
      "çķ": 528,
      "è¿ĺ": 529,
      "çĦ": 530,
      "éļ": 531,
      "å°Ĩ": 532,
      "ç¥": 533,
      "æģ": 534,
      "è½¦": 535,
      "å¤ĸ": 536,
      "åĲį": 537,
      "éĩĮ": 538,
      "ç³": 539,
      "éĢļ": 540,
      "èĭ": 541,
      "ä¸ī": 542,
      "é¦": 543,
      "æīĭ": 544,
      "èµĦ": 545,
      "èĲ": 546,
      "æ°ĳ": 547,
      "éĶ": 548,
      "æŁ": 549,
      "éĩĳ": 550,
      "å¹³": 551,
      "æıĲ": 552,
      "å»º": 553,
      "çī¹": 554,
      "æ¶": 555,
      "éľ": 556,
      "åĪ¶": 557,
      "åıĬ": 558,
      "çĿĢ": 559,
      "å¾Ī": 560,
      "ä¸Ģä¸ª": 561,
      "å½ĵ": 562,
      "åħ¥": 563,
      "ä½į": 564,
      "åĬ¡": 565,
      "æľŁ": 566,
      "åĳĺ": 567,
      "00": 568,
      "çĦ¶": 569,
      "å¢": 570,
      "çł": 571,
      "æ¬¡": 572,
      "è¢«": 573,
      "æ¯Ķ": 574,
      "å±ķ": 575,
      "åĪ©": 576,
      "ãĢĭ": 577,
      "å£": 578,
      "ãĢĬ": 579,
      "æĶ¿": 580,
      "è¡¨": 581,
      "çĽ¸": 582,
      "ç±": 583,
      "æĺİ": 584,
      "å¹¶": 585,
      "èµ·": 586,
      "æ°´": 587,
      "åĽł": 588,
      "è®¾": 589,
      "ç³»": 590,
      "ç§į": 591,
      "æķ°": 592,
      "ä½Ĩ": 593,
      "ä¿Ŀ": 594,
      "é©": 595,
      "èĪ": 596,
      "æĽ´": 597,
      "æĹł": 598,
      "æķĻ": 599,
      "çī©": 600,
      "æ²¡": 601,
      "å®ī": 602,
      "çĽ®": 603,
      "è£": 604,
      "åı°": 605,
      "ä»£": 606,
      "æ·": 607,
      "æĦı": 608,
      "éĩı": 609,
      "åİ»": 610,
      "éħ": 611,
      "ä¿¡": 612,
      "ä¸ŃåĽ½": 613,
      "å½±": 614,
      "201": 615,
      "æŃ£": 616,
      "åı¸": 617,
      "çº¿": 618,
      "èī²": 619,
      "éĴ": 620,
      "æĸ¯": 621,
      "è¥": 622,
      "æŃ¤": 623,
      "ä»İ": 624,
      "æ¡": 625,
      "åºĶ": 626,
      "ä¹Ī": 627,
      "ç´": 628,
      "éĵ": 629,
      "è¥¿": 630,
      "èº": 631,
      "ç²": 632,
      "é»": 633,
      "ç¼": 634,
      "èĥ": 635,
      "ç¦": 636,
      "æµ·": 637,
      "éĤ£": 638,
      "äºĽ": 639,
      "è§Ĩ": 640,
      "åŁº": 641,
      "åı¯ä»¥": 642,
      "çĥ": 643,
      "å¼ı": 644,
      "ä½¿": 645,
      "æĥ³": 646,
      "å¸¸": 647,
      "åħĥ": 648,
      "çģ": 649,
      "ç®¡": 650,
      "è®¡": 651,
      "æŀľ": 652,
      "æĪĳä»¬": 653,
      "ç¨ĭ": 654,
      "äºĮ": 655,
      "èº«": 656,
      "æ¼": 657,
      "ä¸ľ": 658,
      "ä»»": 659,
      "äº¤": 660,
      "åĸ": 661,
      "èį": 662,
      "##": 663,
      "éª": 664,
      "çĸ": 665,
      "èĢģ": 666,
      "èİ": 667,
      "èĦ": 668,
      "æİ¥": 669,
      "æĪĺ": 670,
      "éŁ": 671,
      "è·¯": 672,
      "åİŁ": 673,
      "ç«ĭ": 674,
      "åįģ": 675,
      "ä¸ĸ": 676,
      "çĶ±": 677,
      "ä¸¤": 678,
      "å·²": 679,
      "ç§ĳ": 680,
      "åı£": 681,
      "æ´»": 682,
      "çīĩ": 683,
      "ç¡": 684,
      "åĮĹ": 685,
      "æł·": 686,
      "åħ¬åı¸": 687,
      "æľį": 688,
      "éĹ¨": 689,
      "10": 690,
      "æº": 691,
      "éĹ®": 692,
      "æĬ¥": 693,
      "æĴ": 694,
      "é¢ĺ": 695,
      "èģĶ": 696,
      "æĪĸ": 697,
      "åıª": 698,
      "åįĹ": 699,
      "åģļ": 700,
      "ç»Ł": 701,
      "æĢ»": 702,
      "å¼º": 703,
      "éĻ¢": 704,
      "ä»¶": 705,
      "å°ĳ": 706,
      "è§£": 707,
      "å²": 708,
      "æ»": 709,
      "æ¸¸": 710,
      "åķĨ": 711,
      "æĦŁ": 712,
      "åŁİ": 713,
      "ä¹Ĳ": 714,
      "Â·": 715,
      "çĲĥ": 716,
      "å¨": 717,
      "çŁ¥": 718,
      "æĬĢ": 719,
      "å°Ķ": 720,
      "ä¸ĩ": 721,
      "æį®": 722,
      "éĽĨ": 723,
      "åŀ": 724,
      "æĮģ": 725,
      "åĲĳ": 726,
      "æł¼": 727,
      "ç«Ļ": 728,
      "çĹ": 729,
      "èĩ³": 730,
      "åĲĦ": 731,
      "ç»ĵ": 732,
      "æľ¯": 733,
      "è¿Ĳ": 734,
      "åĽŀ": 735,
      "æĤ": 736,
      "åĽ¾": 737,
      "æµģ": 738,
      "çĽ´": 739,
      "å·±": 740,
      "çľŁ": 741,
      "è®©": 742,
      "æĶ¾": 743,
      "åĨĽ": 744,
      "åħ±": 745,
      "çĭ": 746,
      "æīĵ": 747,
      "é£İ": 748,
      "ä¼ł": 749,
      "æ£": 750,
      "è®°": 751,
      "åıĹ": 752,
      "èĩªå·±": 753,
      "å±±": 754,
      "å¯¼": 755,
      "éĢī": 756,
      "å¸ĥ": 757,
      "å¤´": 758,
      "ç¤¾": 759,
      "çĪ±": 760,
      "å·¥ä½ľ": 761,
      "åįķ": 762,
      "é©¬": 763,
      "æ²¡æľī": 764,
      "æ°Ķ": 765,
      "èĻ": 766,
      "ä»·": 767,
      "å¤Ħ": 768,
      "åħĭ": 769,
      "åĶ": 770,
      "çº§": 771,
      "ä¸ĵ": 772,
      "è´¹": 773,
      "å¸Ī": 774,
      "ç»Ļ": 775,
      "ç¤º": 776,
      "äºļ": 777,
      "æĶ¶": 778,
      "æłĩ": 779,
      "åĪĽ": 780,
      "åĪ«": 781,
      "å¥¹": 782,
      "è¿ĳ": 783,
      "åıĺ": 784,
      "åįİ": 785,
      "è§Ħ": 786,
      "å®Į": 787,
      "è¾¾": 788,
      "å¾·": 789,
      "ç»Ħ": 790,
      "éľĢ": 791,
      "è´¨": 792,
      "æ±Ĥ": 793,
      "æİ¨": 794,
      "è°ĥ": 795,
      "ç¥ŀ": 796,
      "âĢĶ": 797,
      "æ®": 798,
      "æĺŁ": 799,
      "æºĲ": 800,
      "æĶ¹": 801,
      "éĢł": 802,
      "ç±»": 803,
      "åĽĽ": 804,
      "æ²»": 805,
      "éĺŁ": 806,
      "æ¨": 807,
      "æ¸ħ": 808,
      "çķĮ": 809,
      "æĪ·": 810,
      "åħĪ": 811,
      "çĻ½": 812,
      "åŀĭ": 813,
      "å¸¦": 814,
      "æĮĩ": 815,
      "è¯¥": 816,
      "è®¤": 817,
      "çİĭ": 818,
      "ä¼ģ": 819,
      "åıĳå±ķ": 820,
      "è¯Ŀ": 821,
      "åħī": 822,
      "èĮ": 823,
      "ä¹¦": 824,
      "åı·": 825,
      "å¿«": 826,
      "èµĽ": 827,
      "åĻ": 828,
      "é¢Ĩ": 829,
      "ç©º": 830,
      "æĭī": 831,
      "æ¹": 832,
      "é¡¹": 833,
      "å·ŀ": 834,
      "å¹¿": 835,
      "æĬķ": 836,
      "éĿŀ": 837,
      "ä»Ĭ": 838,
      "å¢ŀ": 839,
      "ç§°": 840,
      "æ¢": 841,
      "æķ´": 842,
      "åĮħ": 843,
      "æ¯ı": 844,
      "æĳ": 845,
      "èĬĤ": 846,
      "er": 847,
      "èĤ²": 848,
      "è±": 849,
      "....": 850,
      "å®¢": 851,
      "çłĶ": 852,
      "å¤ª": 853,
      "åħ·": 854,
      "12": 855,
      "ä»Ģ": 856,
      "ç²¾": 857,
      "æĬĬ": 858,
      "åĨį": 859,
      "å¤ĩ": 860,
      "æģ¯": 861,
      "åıĭ": 862,
      "çº¦": 863,
      "å®¹": 864,
      "è§Ĥ": 865,
      "in": 866,
      "æ³¨": 867,
      "æĿĥ": 868,
      "çħ": 869,
      "è®®": 870,
      "ãģ": 871,
      "ä¾Ľ": 872,
      "è£ħ": 873,
      "å½¢": 874,
      "è®º": 875,
      "è¯Ń": 876,
      "é¦ĸ": 877,
      "åħļ": 878,
      "æĹ¶éĹ´": 879,
      "åĬŀ": 880,
      "è¿Ľè¡Į": 881,
      "æĶ¯": 882,
      "æĪ¿": 883,
      "æľįåĬ¡": 884,
      "åĽ¢": 885,
      "ç¾İåĽ½": 886,
      "åĻ¨": 887,
      "æł¡": 888,
      "åıĸ": 889,
      "æīį": 890,
      "åĦ": 891,
      "æĸĻ": 892,
      "äº¬": 893,
      "è½¬": 894,
      "åĮ»": 895,
      "ä¼ģä¸ļ": 896,
      "çīĪ": 897,
      "é¥": 898,
      "èĢĥ": 899,
      "è§ģ": 900,
      "çĶ·": 901,
      "11": 902,
      "æĴŃ": 903,
      "æĺĵ": 904,
      "èĲ¥": 905,
      "éĻħ": 906,
      "çľģ": 907,
      "æķĪ": 908,
      "ãĢĤâĢĿ": 909,
      "ä»ĸä»¬": 910,
      "ä½ķ": 911,
      "éŁ³": 912,
      "èĬ±": 913,
      "an": 914,
      "è¯ģ": 915,
      "æŁ¥": 916,
      "æ·±": 917,
      "åıĪ": 918,
      "èĳ": 919,
      "åĳ¨": 920,
      "åıĤ": 921,
      "ä¼ĺ": 922,
      "å¼ł": 923,
      "æ¼Ķ": 924,
      "è¶ħ": 925,
      "å§Ķ": 926,
      "åĨ³": 927,
      "on": 928,
      "çı": 929,
      "200": 930,
      "å®ĥ": 931,
      "å°±æĺ¯": 932,
      "æŃ¥": 933,
      "å§ĭ": 934,
      "å£«": 935,
      "å±Ģ": 936,
      "èĭ±": 937,
      "åĩĨ": 938,
      "é¢ĳ": 939,
      "éĹ®é¢ĺ": 940,
      "æħ": 941,
      "åĦ¿": 942,
      "çĬ": 943,
      "åıį": 944,
      "åĩł": 945,
      "äºĶ": 946,
      "åĭ": 947,
      "æĿ¡": 948,
      "æ¨¡": 949,
      "éĢŁ": 950,
      "æ¶Ī": 951,
      "ãĥ": 952,
      "18": 953,
      "ä¹ī": 954,
      "æĲ": 955,
      "èħ": 956,
      "æľª": 957,
      "åĥ": 958,
      "çĻ¾": 959,
      "åĬŁ": 960,
      "ç¡®": 961,
      "ç»Ń": 962,
      "çĮ": 963,
      "åĽ½å®¶": 964,
      "åŃĹ": 965,
      "è¾ĥ": 966,
      "å¹²": 967,
      "ç»´": 968,
      "å¸Ĥåľº": 969,
      "åĳĬ": 970,
      "ç½Ĺ": 971,
      "é¾": 972,
      "èµ°": 973,
      "çİ¯": 974,
      "çİĩ": 975,
      "æŀĦ": 976,
      "æµİ": 977,
      "å¡": 978,
      "è¿Ļä¸ª": 979,
      "æŀĹ": 980,
      "ä»Ģä¹Ī": 981,
      "åĪĻ": 982,
      "æ¡Ī": 983,
      "æļ": 984,
      "åĪĹ": 985,
      "çª": 986,
      "è¶Ĭ": 987,
      "å¼ķ": 988,
      "è¨": 989,
      "ä½¿çĶ¨": 990,
      "å¤į": 991,
      "åįļ": 992,
      "è¯·": 993,
      "çĥŃ": 994,
      "è¶³": 995,
      "èĤ¡": 996,
      "éĺ²": 997,
      "æĪı": 998,
      "çīĮ": 999,
      "åİĨ": 1000,
      "åŃĺ": 1001,
      "æŀģ": 1002,
      "å£°": 1003,
      "åºĹ": 1004,
      "åºľ": 1005,
      "ä¹ł": 1006,
      "éĻĲ": 1007,
      "æł¹": 1008,
      "å½©": 1009,
      "èģĮ": 1010,
      "çĹħ": 1011,
      "æĵ": 1012,
      "ç©¶": 1013,
      "è¯ķ": 1014,
      "è¾¹": 1015,
      "åįĩ": 1016,
      "åĢ¼": 1017,
      "æ±Ł": 1018,
      "çħ§": 1019,
      "ä¼Ĺ": 1020,
      "éªĮ": 1021,
      "æĬ¤": 1022,
      "æĢģ": 1023,
      "çº¢": 1024,
      "åĢĻ": 1025,
      "å®ĺ": 1026,
      "æĬĢæľ¯": 1027,
      "ãĤ": 1028,
      "èı": 1029,
      "æĸ½": 1030,
      "éļ¾": 1031,
      "æĢĿ": 1032,
      "éħį": 1033,
      "åİ¿": 1034,
      "åł": 1035,
      "ä¸ĸçķĮ": 1036,
      "ä¾¿": 1037,
      "è¿ŀ": 1038,
      "ç®¡çĲĨ": 1039,
      "åĥı": 1040,
      "åĬ©": 1041,
      "å·´": 1042,
      "åĽłä¸º": 1043,
      "15": 1044,
      "ç±³": 1045,
      "éĢļè¿ĩ": 1046,
      "è½½": 1047,
      "åĪĴ": 1048,
      "èİ·": 1049,
      "ç¦»": 1050,
      "ç¬¬ä¸Ģ": 1051,
      "åį³": 1052,
      "éĺ¿": 1053,
      "æ»¡": 1054,
      "ä½ı": 1055,
      "è¨Ģ": 1056,
      "åĳ½": 1057,
      "ä¸Ķ": 1058,
      "è®¸": 1059,
      "äº§åĵģ": 1060,
      "é¦Ļ": 1061,
      "æİĴ": 1062,
      "è§ī": 1063,
      "åı¤": 1064,
      "æ¥": 1065,
      "çļĦäºº": 1066,
      "è´£": 1067,
      "ä½İ": 1068,
      "--": 1069,
      "åı²": 1070,
      "éĿĴ": 1071,
      "åį¡": 1072,
      "å·²ç»ı": 1073,
      "ç½®": 1074,
      "åĬ¿": 1075,
      "åĨµ": 1076,
      "é»Ħ": 1077,
      "éº": 1078,
      "åıĮ": 1079,
      "éĺ³": 1080,
      "æĺ¾": 1081,
      "æ¬¾": 1082,
      "éļı": 1083,
      "ç»ıæµİ": 1084,
      "âĢĿ,": 1085,
      "å¿ħ": 1086,
      "å¦Ĥæŀľ": 1087,
      "å¢ĥ": 1088,
      "æİ§": 1089,
      "å©": 1090,
      "éĻ¤": 1091,
      "å¾®": 1092,
      "ä¿®": 1093,
      "çľ¼": 1094,
      "åı¯èĥ½": 1095,
      "ç®Ĺ": 1096,
      "è§Ĩé¢ĳ": 1097,
      "éľĢè¦ģ": 1098,
      "èĲ½": 1099,
      "çİ©": 1100,
      "é²": 1101,
      "åŁŁ": 1102,
      "æĿİ": 1103,
      "çºª": 1104,
      "æĿĳ": 1105,
      "åĵį": 1106,
      "æľĽ": 1107,
      "ç¤¾ä¼ļ": 1108,
      "è¯Ĩ": 1109,
      "çģ«": 1110,
      "ä¸įæĺ¯": 1111,
      "çļĦä¸Ģ": 1112,
      "é£Ł": 1113,
      "å¤§åŃ¦": 1114,
      "æĹ¥æľ¬": 1115,
      "èĩ´": 1116,
      "å¼Ģå§ĭ": 1117,
      "åħį": 1118,
      "é»ĳ": 1119,
      "æ®µ": 1120,
      "èŀ": 1121,
      "æ¸¯": 1122,
      "...": 1123,
      "è§Ĵ": 1124,
      "çłĶç©¶": 1125,
      "ar": 1126,
      "åħ°": 1127,
      "ç¿": 1128,
      "é¢Ħ": 1129,
      "å¾Ģ": 1130,
      "ç¦ı": 1131,
      "å®Ŀ": 1132,
      "æıĲä¾Ľ": 1133,
      "åĽŃ": 1134,
      "è¯Ħ": 1135,
      "é¾Ļ": 1136,
      "å±ŀ": 1137,
      "åħ»": 1138,
      "30": 1139,
      "æĭį": 1140,
      "éĶĢ": 1141,
      "åĩ»": 1142,
      "å°¼": 1143,
      "åĲĥ": 1144,
      "èīº": 1145,
      "ä¸¾": 1146,
      "å¤±": 1147,
      "æĶ¿åºľ": 1148,
      "éĩĩ": 1149,
      "éĻ©": 1150,
      "æĸŃ": 1151,
      "æĹı": 1152,
      "en": 1153,
      "æĻ®": 1154,
      "æĻ¯": 1155,
      "16": 1156,
      "ç³»ç»Ł": 1157,
      "åŃ©": 1158,
      "ç¢": 1159,
      ":âĢľ": 1160,
      "æ´²": 1161,
      "æķĻèĤ²": 1162,
      "or": 1163,
      "ç¾¤": 1164,
      "åĨľ": 1165,
      "ä¾ĭ": 1166,
      "ä¿¡æģ¯": 1167,
      "æĹ©": 1168,
      "æµĭ": 1169,
      "ç§¯": 1170,
      "çŁ³": 1171,
      "ä¹°": 1172,
      "äºī": 1173,
      "åĽ½éĻħ": 1174,
      "æ¸¸æĪı": 1175,
      "åįı": 1176,
      "æĪĲä¸º": 1177,
      "è´Ń": 1178,
      "åī§": 1179,
      "ç«ł": 1180,
      "çİ°åľ¨": 1181,
      "),": 1182,
      "åįĬ": 1183,
      "æĹ¶åĢĻ": 1184,
      "ç»Ī": 1185,
      "äº²": 1186,
      "ç¼ĸ": 1187,
      "æ²³": 1188,
      "è±¡": 1189,
      "ä»½": 1190,
      "æ¬¢": 1191,
      "çĽĳ": 1192,
      "ä»¥åıĬ": 1193,
      "éĴ±": 1194,
      "éŃ": 1195,
      "åĸľ": 1196,
      "ç´ł": 1197,
      "äººæ°ĳ": 1198,
      "æŃ»": 1199,
      "ä¸»è¦ģ": 1200,
      "äºĨä¸Ģ": 1201,
      "æ²¹": 1202,
      "è½»": 1203,
      "èĴ": 1204,
      "åį´": 1205,
      "éħĴ": 1206,
      "é¸": 1207,
      "çĶŁæ´»": 1208,
      "æ¿": 1209,
      "æĿĲ": 1210,
      "åĲĮæĹ¶": 1211,
      "ww": 1212,
      "äº¿": 1213,
      "17": 1214,
      "æ´»åĬ¨": 1215,
      "at": 1216,
      "om": 1217,
      "ä»ħ": 1218,
      "13": 1219,
      "èĮĥ": 1220,
      "ç»Ĩ": 1221,
      "èŀį": 1222,
      "çĨ": 1223,
      "å¤Ł": 1224,
      "äºĴ": 1225,
      "å¤«": 1226,
      "æĹħ": 1227,
      "ç¥¨": 1228,
      "äººçļĦ": 1229,
      "éĩįè¦ģ": 1230,
      "çŃĸ": 1231,
      "14": 1232,
      "çĶµå½±": 1233,
      "æĸ¹éĿ¢": 1234,
      "æĻº": 1235,
      "åº§": 1236,
      "è¿ĻäºĽ": 1237,
      "åĪĩ": 1238,
      "åŃ£": 1239,
      "å®¤": 1240,
      "å¥ĸ": 1241,
      "æĺ¯ä¸Ģ": 1242,
      "åĪĿ": 1243,
      "âĢĿãĢĤ": 1244,
      "æĢİ": 1245,
      "ç½ĳç«Ļ": 1246,
      "å¯Ĩ": 1247,
      "ä¾Ŀ": 1248,
      "al": 1249,
      "å±ħ": 1250,
      "æĵį": 1251,
      "å¤§çļĦ": 1252,
      "è·Ł": 1253,
      "æ½": 1254,
      "åºķ": 1255,
      "çĵ": 1256,
      "æ¯į": 1257,
      "æĥħåĨµ": 1258,
      "å¹³åı°": 1259,
      "è®¾è®¡": 1260,
      "å±Ĥ": 1261,
      "å½ķ": 1262,
      "åİĭ": 1263,
      "es": 1264,
      "æīĢä»¥": 1265,
      "æ¸©": 1266,
      "è¿ľ": 1267,
      "æŃ¦": 1268,
      "æī¾": 1269,
      "éĢĤ": 1270,
      "å»ºè®¾": 1271,
      "æĿ¿": 1272,
      "ä¸¥": 1273,
      "å¾ĭ": 1274,
      "Ġ(": 1275,
      "éĥ¨åĪĨ": 1276,
      "è¡¨ç¤º": 1277,
      "å¥ĩ": 1278,
      "æķħ": 1279,
      "åıĳçİ°": 1280,
      "æ³¢": 1281,
      "è¿Ļæł·": 1282,
      "å®īåħ¨": 1283,
      "äºĳ": 1284,
      "å¾Īå¤ļ": 1285,
      "ä½Ĩæĺ¯": 1286,
      "åĽ´": 1287,
      "åº·": 1288,
      "é£ŀ": 1289,
      "æĽ¾": 1290,
      "å¸Į": 1291,
      "åĮĹäº¬": 1292,
      "åľŁ": 1293,
      "å¿Ĺ": 1294,
      "æĸĩåĮĸ": 1295,
      "çŁ¥éģĵ": 1296,
      "é¡¹çĽ®": 1297,
      "ç»ĩ": 1298,
      "åħ¶ä»ĸ": 1299,
      "åħŃ": 1300,
      "æĤ¨": 1301,
      "ä¸Ńå¿ĥ": 1302,
      "åĪ°äºĨ": 1303,
      "åħ´": 1304,
      "éĵģ": 1305,
      "åĲĹ": 1306,
      "åĺ": 1307,
      "åĨĻ": 1308,
      "æĮī": 1309,
      "ç®Ģ": 1310,
      "éĻį": 1311,
      "æ¿Ģ": 1312,
      "éĵ¶": 1313,
      "çº³": 1314,
      "è¿ĺæĺ¯": 1315,
      "èĹ": 1316,
      "åŃ¦çĶŁ": 1317,
      "ä½ľä¸º": 1318,
      "æ£Ģ": 1319,
      "åľ¨çº¿": 1320,
      "æ¬§": 1321,
      "ä¸ŃçļĦ": 1322,
      "è´Ł": 1323,
      "æł¸": 1324,
      "å¤§å®¶": 1325,
      "æĬķèµĦ": 1326,
      "å½±åĵį": 1327,
      "çĶ»": 1328,
      "åģ¥": 1329,
      "åĶ®": 1330,
      "å¿µ": 1331,
      "25": 1332,
      "åĿĩ": 1333,
      "éĢģ": 1334,
      "çĬ¶": 1335,
      "èŃ": 1336,
      "ä¹Łæĺ¯": 1337,
      "éĿŀå¸¸": 1338,
      "±ä¹Ĳ": 1339,
      "æī¿": 1340,
      "å¯Į": 1341,
      "âĢĶâĢĶ": 1342,
      "èĭı": 1343,
      "çĽĬ": 1344,
      "æīĢæľī": 1345,
      "æĭ©": 1346,
      "åįĥ": 1347,
      "çıŃ": 1348,
      "è´§": 1349,
      "ä¸įåĲĮ": 1350,
      "åĲ§": 1351,
      "æķ°æį®": 1352,
      "åĲ¬": 1353,
      "ä»ĭ": 1354,
      "çķĻ": 1355,
      "199": 1356,
      "è¦ģæ±Ĥ": 1357,
      "çĽ¸åħ³": 1358,
      "åħ«": 1359,
      "è´¢": 1360,
      "çĭ¬": 1361,
      "éĿ©": 1362,
      "è¯»": 1363,
      "å¤ľ": 1364,
      "åį«": 1365,
      "å¤®": 1366,
      "çł´": 1367,
      "éĥ½æĺ¯": 1368,
      "çļĦæĺ¯": 1369,
      "24": 1370,
      "çĽ®åīį": 1371,
      "åı¦": 1372,
      "æ±½": 1373,
      "éĶĻ": 1374,
      "åĿļ": 1375,
      "èĳĹ": 1376,
      "åľ°åĮº": 1377,
      "åĤ": 1378,
      "ä¸Ŀ": 1379,
      "è®¤ä¸º": 1380,
      "æ¹¾": 1381,
      "æŃ¢": 1382,
      "åį°": 1383,
      "åĵª": 1384,
      "æĺ¥": 1385,
      "æ¦": 1386,
      "åħħ": 1387,
      "éĢīæĭ©": 1388,
      "æį¢": 1389,
      "å®£": 1390,
      "éĻĪ": 1391,
      "å¯¹äºİ": 1392,
      "ä¸ĬçļĦ": 1393,
      "æľĿ": 1394,
      "ç»§": 1395,
      "æĭ¬": 1396,
      "è®²": 1397,
      "ç»ľ": 1398,
      "ãĢĳ": 1399,
      "ãĢĲ": 1400,
      "å²Ľ": 1401,
      "åĳ³": 1402,
      "çªģ": 1403,
      "22": 1404,
      "å¦¹": 1405,
      "åĵ¥": 1406,
      "å²ģ": 1407,
      "åª": 1408,
      "è¡Ģ": 1409,
      "ç»Ħç»ĩ": 1410,
      "å¥½çļĦ": 1411,
      "ä¸ĢäºĽ": 1412,
      "éŁ©": 1413,
      "èĩªå·±çļĦ": 1414,
      "èį¯": 1415,
      ",âĢľ": 1416,
      "åī¯": 1417,
      "å¸®": 1418,
      "åŁİå¸Ĥ": 1419,
      "èŃ¦": 1420,
      "åĨħå®¹": 1421,
      "åģľ": 1422,
      "ä¹ħ": 1423,
      "çĳ": 1424,
      "äººåĳĺ": 1425,
      "å¥¥": 1426,
      "çĸĹ": 1427,
      "æīĭæľº": 1428,
      "21": 1429,
      "æĸ¹å¼ı": 1430,
      "æĻļ": 1431,
      "æ¾": 1432,
      "å°½": 1433,
      "ç¾İå¥³": 1434,
      "åĮħæĭ¬": 1435,
      "çķ¥": 1436,
      "æ²Ļ": 1437,
      "å¨ģ": 1438,
      "æ±ī": 1439,
      "èĪª": 1440,
      "é¦Ĩ": 1441,
      "äº«": 1442,
      "ç»Ŀ": 1443,
      "åģĩ": 1444,
      "å¨±ä¹Ĳ": 1445,
      "å°Ħ": 1446,
      "åŁºæľ¬": 1447,
      "æĭ¿": 1448,
      "åĩı": 1449,
      "ç´¢": 1450,
      "æī¹": 1451,
      "åħ¶ä¸Ń": 1452,
      "50": 1453,
      "æĭħ": 1454,
      "çŁŃ": 1455,
      "......": 1456,
      "æĿ¥çļĦ": 1457,
      "le": 1458,
      "st": 1459,
      "ç¯": 1460,
      "ç¬¬äºĮ": 1461,
      "æŃĮ": 1462,
      "éĹ»": 1463,
      "çĶŁäº§": 1464,
      "èĽ": 1465,
      "åĵĪ": 1466,
      "ä¹ĭåĲİ": 1467,
      "ç½ĳç»ľ": 1468,
      "ä»¤": 1469,
      "ç«¯": 1470,
      "ç´§": 1471,
      "åĩºçİ°": 1472,
      "23": 1473,
      "ä¸įèĥ½": 1474,
      "ä¸ĵä¸ļ": 1475,
      "ä¸ĥ": 1476,
      "ä¸ĭè½½": 1477,
      "éķĩ": 1478,
      "æľĭ": 1479,
      "ä¹Ŀ": 1480,
      "åĪļ": 1481,
      "æ¹ĸ": 1482,
      "æŁĲ": 1483,
      "ç§»": 1484,
      "###": 1485,
      "çłģ": 1486,
      "è¯¾": 1487,
      "åŁ¹": 1488,
      "èĪ¬": 1489,
      "åĽ¾çīĩ": 1490,
      "åŃ¦ä¹ł": 1491,
      "è¡Įä¸ļ": 1492,
      "åįł": 1493,
      "åħ¨åĽ½": 1494,
      "åĸĦ": 1495,
      "ä¸ªäºº": 1496,
      "ãĢĮ": 1497,
      "ä¸½": 1498,
      "å·®": 1499,
      "it": 1500,
      "è¿Ļä¸Ģ": 1501,
      "åĳ¢": 1502,
      "è¿ĺæľī": 1503,
      "ä¼Ĭ": 1504,
      "åĲĪä½ľ": 1505,
      "çĻ»": 1506,
      "è½¯": 1507,
      "å¥Ĺ": 1508,
      "èĻ½": 1509,
      "å¾ħ": 1510,
      "ĠS": 1511,
      "æľ¨": 1512,
      "éĻĨ": 1513,
      "è®°èĢħ": 1514,
      "è¿Ļç§į": 1515,
      "åĿĢ": 1516,
      "æĢİä¹Ī": 1517,
      "ä¼¦": 1518,
      "è¡£": 1519,
      "ic": 1520,
      "çĶ¨æĪ·": 1521,
      "å®³": 1522,
      "åŃ©åŃĲ": 1523,
      "å«": 1524,
      "éĽ·": 1525,
      "éľ²": 1526,
      "ä¸Ńå¤®": 1527,
      "èĥ½åĬĽ": 1528,
      "çļ®": 1529,
      "ä¼¤": 1530,
      "ç¬ĳ": 1531,
      "çĽŁ": 1532,
      "æł¹æį®": 1533,
      "åİĨåı²": 1534,
      "ç§Ģ": 1535,
      "åĲ¦": 1536,
      "èĥ½å¤Ł": 1537,
      "ä»£è¡¨": 1538,
      "et": 1539,
      "ãĢį": 1540,
      "å¯Ł": 1541,
      "æľĭåıĭ": 1542,
      "ä¹¡": 1543,
      "æĿĢ": 1544,
      "çļĩ": 1545,
      "åķª": 1546,
      "åıĳçĶŁ": 1547,
      "ä»ĸçļĦ": 1548,
      "æĪĳçļĦ": 1549,
      "åĪĺ": 1550,
      "èĤī": 1551,
      "éĢĢ": 1552,
      "äº§ä¸ļ": 1553,
      "æ¥¼": 1554,
      "æĽ²": 1555,
      "æĶ¯æĮģ": 1556,
      "é¡»": 1557,
      "è¿Ļæĺ¯": 1558,
      "å¼Ĥ": 1559,
      "çīĽ": 1560,
      "çİ¯å¢ĥ": 1561,
      "ä¸įä¼ļ": 1562,
      "å¦Ī": 1563,
      "000": 1564,
      "æĶ»": 1565,
      "åĲ¸": 1566,
      "èµ·æĿ¥": 1567,
      "æī§": 1568,
      "æ±½è½¦": 1569,
      "æĸĹ": 1570,
      "ä¼¼": 1571,
      "åı°æ¹¾": 1572,
      "çĪĨ": 1573,
      "è®Ń": 1574,
      "ĠC": 1575,
      "æ¯Ľ": 1576,
      "åħµ": 1577,
      "ä¸ºäºĨ": 1578,
      "è¡¥": 1579,
      "äº®": 1580,
      "é¤": 1581,
      "è½®": 1582,
      "è¿°": 1583,
      "çĶ±äºİ": 1584,
      "ç§ĳæĬĢ": 1585,
      "å°ıè¯´": 1586,
      "æ´¾": 1587,
      "com": 1588,
      "çĽĺ": 1589,
      "å®ŀçİ°": 1590,
      "èĵ": 1591,
      "ä¸Ģå®ļ": 1592,
      "å¤ı": 1593,
      "é¦Ļæ¸¯": 1594,
      "å³": 1595,
      "è®¡åĪĴ": 1596,
      "çļĦæĹ¶åĢĻ": 1597,
      "é¢Ŀ": 1598,
      "çģµ": 1599,
      "æ¤": 1600,
      "ä»ĺ": 1601,
      "æŀĲ": 1602,
      "å¦ĩ": 1603,
      "å¸ģ": 1604,
      "èī¯": 1605,
      "åĲī": 1606,
      "ä½Ļ": 1607,
      "åħ¸": 1608,
      "av": 1609,
      "èįī": 1610,
      "æĭĽ": 1611,
      "åĪ»": 1612,
      "å¹´çļĦ": 1613,
      "å·¥ç¨ĭ": 1614,
      "åľ°æĸ¹": 1615,
      "èİ·å¾Ĺ": 1616,
      "ä¸´": 1617,
      "çĪ¶": 1618,
      "çĶ°": 1619,
      "å¸Ŀ": 1620,
      "åĽłæŃ¤": 1621,
      "å¸Ń": 1622,
      "èĹı": 1623,
      "å®Ĺ": 1624,
      "åı«": 1625,
      "åĵģçīĮ": 1626,
      "åĨł": 1627,
      "åİĤ": 1628,
      "ä¸įè¿ĩ": 1629,
      "è®¯": 1630,
      "æľºæŀĦ": 1631,
      "ä»į": 1632,
      "å¦Ĥä½ķ": 1633,
      "åŃ¦æł¡": 1634,
      "é±": 1635,
      "æ¯Ķè¾ĥ": 1636,
      "ç£": 1637,
      "èĥľ": 1638,
      "ç»į": 1639,
      "èµĦæºĲ": 1640,
      "26": 1641,
      "Ġ19": 1642,
      "80": 1643,
      "ä¸°": 1644,
      "å®¡": 1645,
      "é¼": 1646,
      "éĨ": 1647,
      "el": 1648,
      "åıĳå¸ĥ": 1649,
      "é±¼": 1650,
      "è¾ĵ": 1651,
      "å·¨": 1652,
      "åĲ«": 1653,
      "åªĴ": 1654,
      "åĸľæ¬¢": 1655,
      "am": 1656,
      "å®ģ": 1657,
      "æĽ´å¤ļ": 1658,
      "åºı": 1659,
      "å·¦": 1660,
      "é¤Ĳ": 1661,
      "æīĺ": 1662,
      "æĸ¹æ³ķ": 1663,
      "æĦ¿": 1664,
      "ä»·æł¼": 1665,
      "è¿ĩç¨ĭ": 1666,
      "æľīéĻĲ": 1667,
      "çľĭåĪ°": 1668,
      "åįĸ": 1669,
      "ç¨³": 1670,
      "èĦ¸": 1671,
      "æĶ¿æ²»": 1672,
      "åħ³ç³»": 1673,
      "éģĩ": 1674,
      "ç«ŀ": 1675,
      "æıĴ": 1676,
      "ä¸Ĭæµ·": 1677,
      "æĿ¾": 1678,
      "å§Ĳ": 1679,
      "æĶ¿çŃĸ": 1680,
      ")ãĢĤ": 1681,
      "æ¼«": 1682,
      ")ãĢģ": 1683,
      "å¥¶": 1684,
      "èĦĳ": 1685,
      "è¡Ĺ": 1686,
      "èĥĮ": 1687,
      "è¿Ľåħ¥": 1688,
      "ãĢĤ,": 1689,
      "åºĵ": 1690,
      "ç©¿": 1691,
      "ç³»åĪĹ": 1692,
      "çĶ³": 1693,
      "è¯ī": 1694,
      "äºĨè§£": 1695,
      "è¿ĲåĬ¨": 1696,
      "2018": 1697,
      "åĬŁèĥ½": 1698,
      "èĻ½çĦ¶": 1699,
      "å¦»": 1700,
      "40": 1701,
      "çŃĳ": 1702,
      "||": 1703,
      "åĿĹ": 1704,
      "60": 1705,
      "ç§ĳåŃ¦": 1706,
      "åłĤ": 1707,
      "çĽ´æİ¥": 1708,
      "ç²ī": 1709,
      "æ¢¦": 1710,
      "è¯į": 1711,
      "2017": 1712,
      "ou": 1713,
      "åĪĽæĸ°": 1714,
      "æ°¸": 1715,
      "çī¹åĪ«": 1716,
      "åĨ²": 1717,
      "å®ĮæĪĲ": 1718,
      "æľĢåĲİ": 1719,
      "æłĩåĩĨ": 1720,
      "æĭ¥": 1721,
      "28": 1722,
      "åħ·æľī": 1723,
      "éĴŁ": 1724,
      "is": 1725,
      "å©ļ": 1726,
      "éĤ£ä¹Ī": 1727,
      "åĨ·": 1728,
      "è®¿": 1729,
      "27": 1730,
      "åºĨ": 1731,
      "å±Ĭ": 1732,
      "åı³": 1733,
      "ç¤¼": 1734,
      "2019": 1735,
      "ä¸»ä¹ī": 1736,
      "ä¸ĢçĽ´": 1737,
      "æ¶Īè´¹": 1738,
      "åºŃ": 1739,
      "åľ£": 1740,
      "he": 1741,
      "è°¢": 1742,
      "æıĲé«ĺ": 1743,
      "ä¸įæĸŃ": 1744,
      "èĢĮä¸Ķ": 1745,
      "éĩİ": 1746,
      "ä½³": 1747,
      "çĸ«": 1748,
      "åķĬ": 1749,
      "èµĦæĸĻ": 1750,
      "çĶļ": 1751,
      "ä½łçļĦ": 1752,
      "ä¹±": 1753,
      "éĢı": 1754,
      "è´¨éĩı": 1755,
      "ç¡Ģ": 1756,
      "å¾ģ": 1757,
      "ç»¼": 1758,
      "åºĶçĶ¨": 1759,
      "åŁºç¡Ģ": 1760,
      "è¿½": 1761,
      "çŃ¾": 1762,
      "ç»ĥ": 1763,
      "éĵ¾": 1764,
      "åºĶè¯¥": 1765,
      "å¸ĮæľĽ": 1766,
      "éĽĨåĽ¢": 1767,
      "å®Ī": 1768,
      "ä»ĭç»į": 1769,
      "å·Ŀ": 1770,
      "ä¸įè¦ģ": 1771,
      "ä¸ĢèĪ¬": 1772,
      "è°Ī": 1773,
      "èª": 1774,
      "çĨŁ": 1775,
      "åŃĺåľ¨": 1776,
      "åħįè´¹": 1777,
      "ä¹³": 1778,
      "è´µ": 1779,
      "ä¸Ģèµ·": 1780,
      "å¼Ģåıĳ": 1781,
      "éĥ¨éĹ¨": 1782,
      "è§£åĨ³": 1783,
      "èĭ¥": 1784,
      "çĶµè§Ĩ": 1785,
      "åĪĨæŀĲ": 1786,
      "éļľ": 1787,
      "ĠM": 1788,
      "èľ": 1789,
      "æĪĸèĢħ": 1790,
      "å¤ĦçĲĨ": 1791,
      "ä¸ĢæŃ¥": 1792,
      "ä¹İ": 1793,
      "ç¨İ": 1794,
      "çŃĶ": 1795,
      "ĠA": 1796,
      "çļĦå¤§": 1797,
      "åįĪ": 1798,
      "ç§ģ": 1799,
      "æĬĹ": 1800,
      "æ¯Ĵ": 1801,
      "ä»»ä½ķ": 1802,
      "èģļ": 1803,
      "ä¸Ģæł·": 1804,
      "ä¸¤ä¸ª": 1805,
      "æĳĦ": 1806,
      "éĽĦ": 1807,
      "æĸ°éĹ»": 1808,
      "éĶ®": 1809,
      "çĩ": 1810,
      "é¡º": 1811,
      "è¯º": 1812,
      "æĹ¶ä»£": 1813,
      "èĸ": 1814,
      "ed": 1815,
      "å¡Ķ": 1816,
      "æ¾³": 1817,
      "è®¾å¤ĩ": 1818,
      "ä¼ļè®®": 1819,
      "éĻĦ": 1820,
      "ä½ľçĶ¨": 1821,
      "å¿ħé¡»": 1822,
      "ac": 1823,
      "ion": 1824,
      "å¢ŀéķ¿": 1825,
      "ä¼ĳ": 1826,
      "åģ¥åº·": 1827,
      "æĹħæ¸¸": 1828,
      "åħ³äºİ": 1829,
      "å®¢æĪ·": 1830,
      "é²ľ": 1831,
      "åĲ¯": 1832,
      "åı¶": 1833,
      "åħ¨çĲĥ": 1834,
      "èīºæľ¯": 1835,
      "èĦ±": 1836,
      "æİ¢": 1837,
      "29": 1838,
      "ä¹ĭéĹ´": 1839,
      "èıľ": 1840,
      "é¹": 1841,
      "åĲĦç§į": 1842,
      "åįķä½į": 1843,
      "ä»Ĭå¹´": 1844,
      "æłĳ": 1845,
      ")|": 1846,
      "éĵ¶è¡Į": 1847,
      "æ´Ĺ": 1848,
      "æŀ¶": 1849,
      "www": 1850,
      "è¾Ĩ": 1851,
      "ĠI": 1852,
      "é¢Ĩå¯¼": 1853,
      "ht": 1854,
      "èĪŀ": 1855,
      "2020": 1856,
      "----": 1857,
      "é¥°": 1858,
      "éĿł": 1859,
      "ç¼º": 1860,
      "åıªæľī": 1861,
      "å§Ķåĳĺ": 1862,
      "äº¤æĺĵ": 1863,
      "æįŁ": 1864,
      "ä¹ĭä¸Ģ": 1865,
      "é¡µ": 1866,
      "åŃ¦éĻ¢": 1867,
      "éĽª": 1868,
      "åİħ": 1869,
      "88": 1870,
      "éĩĳèŀį": 1871,
      "éĢĲ": 1872,
      "ç»§ç»Ń": 1873,
      "é¢ĨåŁŁ": 1874,
      "è´£ä»»": 1875,
      "ç»¿": 1876,
      "éĽ¨": 1877,
      "æŁĵ": 1878,
      "ç»ĵæŀľ": 1879,
      "å¢ŀåĬł": 1880,
      "é½": 1881,
      "åĽ½åĨħ": 1882,
      "å¼Ģå±ķ": 1883,
      "åĿĲ": 1884,
      "çĿ£": 1885,
      "36": 1886,
      "æ£®": 1887,
      "å¼Ł": 1888,
      "ol": 1889,
      "éĺ¶": 1890,
      "ç¬¬ä¸ī": 1891,
      "æĿ¨": 1892,
      "é¡¾": 1893,
      "æĢ¥": 1894,
      "æĶ¹éĿ©": 1895,
      "æİ§åĪ¶": 1896,
      "æħ¢": 1897,
      "éĴĪ": 1898,
      "Ġ-": 1899,
      "èĴĻ": 1900,
      "å°ģ": 1901,
      "æıĲåįĩ": 1902,
      "çĸĳ": 1903,
      "æĸ°çļĦ": 1904,
      "å»ºç«ĭ": 1905,
      "æĻºèĥ½": 1906,
      "æŃ£åľ¨": 1907,
      "ĠP": 1908,
      "2016": 1909,
      "å»ºçŃĳ": 1910,
      "èĨ": 1911,
      "ä¸ļåĬ¡": 1912,
      "è¿İ": 1913,
      "éĿĻ": 1914,
      "æ´ĭ": 1915,
      "æĪĲåĬŁ": 1916,
      "å°ļ": 1917,
      "æķĳ": 1918,
      "as": 1919,
      "é¡¶": 1920,
      "ç²¾ç¥ŀ": 1921,
      "å®«": 1922,
      "100": 1923,
      "åºĬ": 1924,
      "ä¿ĥ": 1925,
      "è®¸å¤ļ": 1926,
      "re": 1927,
      "ä¿ĿæĬ¤": 1928,
      "å´": 1929,
      "æ±ĩ": 1930,
      "è§īå¾Ĺ": 1931,
      "æ¯ķ": 1932,
      "é¡¿": 1933,
      "æľīéĻĲåħ¬åı¸": 1934,
      "ä¿Ħ": 1935,
      "æİĪ": 1936,
      "è¶£": 1937,
      "å¼¹": 1938,
      "éŃĶ": 1939,
      "éľĢæ±Ĥ": 1940,
      "ç§ĺ": 1941,
      "ç«¥": 1942,
      "ä½ľåĵģ": 1943,
      "éĢ¼": 1944,
      "èĩªçĦ¶": 1945,
      "ä¸Ńåįİ": 1946,
      "ä¸Ģæ¬¡": 1947,
      "è¿ª": 1948,
      "è¿ĻéĩĮ": 1949,
      "åĬ³": 1950,
      "èģĶç½ĳ": 1951,
      "çļĦå°ı": 1952,
      "åĮ»éĻ¢": 1953,
      "é¢ľ": 1954,
      "èĮ¶": 1955,
      "ä¸Ģä¸ĭ": 1956,
      "è¸": 1957,
      "è´Łè´£": 1958,
      "æĺ¾ç¤º": 1959,
      "æĮ¥": 1960,
      "çĶµåŃĲ": 1961,
      "ç¦ģ": 1962,
      "åĪ¤": 1963,
      "æ´Ľ": 1964,
      "åĽ°": 1965,
      "il": 1966,
      "å»¶": 1967,
      "æĤ£": 1968,
      "ap": 1969,
      "éĽ¶": 1970,
      "çĽĸ": 1971,
      "ä¼¯": 1972,
      "å½¢æĪĲ": 1973,
      "æĭ¥æľī": 1974,
      "çĦ¶åĲİ": 1975,
      "æıĲåĩº": 1976,
      "ç§Ł": 1977,
      "çĶļèĩ³": 1978,
      "åıªæĺ¯": 1979,
      "å¹ķ": 1980,
      "é²ģ": 1981,
      "ç»©": 1982,
      "åħ¶å®ŀ": 1983,
      "è¡ĮæĺŁ": 1984,
      "å¡ŀ": 1985,
      "èĭ±åĽ½": 1986,
      "å¹ħ": 1987,
      "åĽº": 1988,
      "è´Ŀ": 1989,
      "åĢŁ": 1990,
      "çĽĽ": 1991,
      "å½Ĵ": 1992,
      "ä»Ĭå¤©": 1993,
      "è¾ĳ": 1994,
      "çĶµè¯Ŀ": 1995,
      "ä¼łç»Ł": 1996,
      "æĹ§": 1997,
      "ĠB": 1998,
      "æģ©": 1999,
      "èĲ¨": 2000,
      "çĶ²": 2001,
      "åĢĴ": 2002,
      "æĿ¥æºĲ": 2003,
      "éĺħ": 2004,
      "ä¹ĭåīį": 2005,
      "ç»¼åĲĪ": 2006,
      "ä½Ľ": 2007,
      "åªĴä½ĵ": 2008,
      "è§Ħå®ļ": 2009,
      "äººåı£": 2010,
      "æĿ¥è¯´": 2011,
      "æĹłæ³ķ": 2012,
      "èĢģå¸Ī": 2013,
      "åģ·": 2014,
      "åħ¨éĿ¢": 2015,
      "åĨĮ": 2016,
      "åĨ°": 2017,
      "æĩ": 2018,
      "å¹¸": 2019,
      "è¿·": 2020,
      "è¿Ŀ": 2021,
      "åıĤåĬł": 2022,
      "ri": 2023,
      "æĢĢ": 2024,
      "æľīåħ³": 2025,
      "äº¿åħĥ": 2026,
      "è¡Įä¸º": 2027,
      "éģĹ": 2028,
      "%,": 2029,
      "ing": 2030,
      "!âĢĿ": 2031,
      "çĽ®æłĩ": 2032,
      "è¯¢": 2033,
      "çĥĪ": 2034,
      "æ³°": 2035,
      "ä»¥ä¸Ĭ": 2036,
      "è´¥": 2037,
      "çļĦäºĭ": 2038,
      "ç¾İåħĥ": 2039,
      "è·ĳ": 2040,
      "åĨ³å®ļ": 2041,
      "æµª": 2042,
      "?âĢĿ": 2043,
      "è°ģ": 2044,
      "çīĻ": 2045,
      "æĥĬ": 2046,
      "èĦļ": 2047,
      "æĥł": 2048,
      "äº§çĶŁ": 2049,
      "ãĢĤãĢĤ": 2050,
      "çİī": 2051,
      "èį£": 2052,
      "æľĢæĸ°": 2053,
      "55": 2054,
      "åĩºæĿ¥": 2055,
      "31": 2056,
      "éŁ©åĽ½": 2057,
      "éĺ´": 2058,
      "æľŁéĹ´": 2059,
      "åĪ©çĶ¨": 2060,
      "æ¨¡å¼ı": 2061,
      "70": 2062,
      "æĿĤ": 2063,
      "æĿŁ": 2064,
      "ä¹Łä¸į": 2065,
      "åĶĲ": 2066,
      "å®ŀéĻħ": 2067,
      "ç«Ł": 2068,
      "èĵĿ": 2069,
      "æķħäºĭ": 2070,
      "èĽĭ": 2071,
      "åį±": 2072,
      "äº¡": 2073,
      "æķ£": 2074,
      "æ³¨æĦı": 2075,
      "é¸¡": 2076,
      "éĴ¢": 2077,
      "ç¬Ķ": 2078,
      "éĽħ": 2079,
      "æ½®": 2080,
      "è®¢": 2081,
      "ç¯ĩ": 2082,
      "ç©ºéĹ´": 2083,
      "æī©": 2084,
      "æļ´": 2085,
      "çĬ¯": 2086,
      "æĪĲç«ĭ": 2087,
      "åħ³æ³¨": 2088,
      "çĳŀ": 2089,
      "è¾¾åĪ°": 2090,
      "æ¸Ĳ": 2091,
      "åĪ¶åº¦": 2092,
      "æ¦Ĥ": 2093,
      "ä½ĵèĤ²": 2094,
      "æĿĲæĸĻ": 2095,
      "æ¶ī": 2096,
      "ä¼´": 2097,
      "99": 2098,
      "éŁ³ä¹Ĳ": 2099,
      "ro": 2100,
      "ch": 2101,
      "åıĤä¸İ": 2102,
      "ä¹¦è®°": 2103,
      "éĢłæĪĲ": 2104,
      "èģĶåĲĪ": 2105,
      "è¶ħè¿ĩ": 2106,
      "éĺµ": 2107,
      "çŀ": 2108,
      "æľīä¸Ģ": 2109,
      "id": 2110,
      "ĠT": 2111,
      "å½ĵæĹ¶": 2112,
      "ç½ª": 2113,
      "éĩĬ": 2114,
      "åİŁåĽł": 2115,
      "æĮģç»Ń": 2116,
      "ä¸ľè¥¿": 2117,
      "æ¯ĶèµĽ": 2118,
      "å¯¼èĩ´": 2119,
      "æĳ©": 2120,
      "å¸®åĬ©": 2121,
      "éĶĢåĶ®": 2122,
      "éļıçĿĢ": 2123,
      "æľªæĿ¥": 2124,
      "æĮĳ": 2125,
      "ç»ĵæŀĦ": 2126,
      "æĬ¥åĳĬ": 2127,
      "å·¥ä¸ļ": 2128,
      "èĶ": 2129,
      "æĬĵ": 2130,
      "äºĪ": 2131,
      "æ¡¥": 2132,
      "åĬłå¼º": 2133,
      "åĲ´": 2134,
      "æĦŁè§ī": 2135,
      "Ġt": 2136,
      "ãĢĭ,": 2137,
      "è½¯ä»¶": 2138,
      "ä¸ģ": 2139,
      "éĩĩçĶ¨": 2140,
      "æĽ¼": 2141,
      "35": 2142,
      "æ°´å¹³": 2143,
      "äºļæ´²": 2144,
      "è®¨": 2145,
      "èµĦéĩĳ": 2146,
      "æĿ¥èĩª": 2147,
      "è´«": 2148,
      "çĵ¦": 2149,
      "éħĴåºĹ": 2150,
      "æľĹ": 2151,
      "æ¶²": 2152,
      "è´¸": 2153,
      "æģ¶": 2154,
      "å®Įåħ¨": 2155,
      "è¿Ľä¸ĢæŃ¥": 2156,
      "ä¸įä»ħ": 2157,
      "æĲŃ": 2158,
      "çļĦè¯Ŀ": 2159,
      "çŁ¥è¯Ĩ": 2160,
      "æĿ¯": 2161,
      "éĻ¤äºĨ": 2162,
      "çĽ´æĴŃ": 2163,
      "å±ĭ": 2164,
      "èİ±": 2165,
      "èĭ¦": 2166,
      "æŃ£å¼ı": 2167,
      "æ³ķå¾ĭ": 2168,
      "äº¤éĢļ": 2169,
      "æĺ¯åĲ¦": 2170,
      "æ¶¨": 2171,
      "ãĢĤâĢľ": 2172,
      "90": 2173,
      "èĻİ": 2174,
      "ä¸ĸçºª": 2175,
      "æĸ¹æ¡Ī": 2176,
      "äºĴèģĶç½ĳ": 2177,
      "æİª": 2178,
      "å³°": 2179,
      "çİ°åľº": 2180,
      "é½Ĳ": 2181,
      "ç§ĭ": 2182,
      "å®¶åºŃ": 2183,
      "æĸĩç«ł": 2184,
      "åĳ¼": 2185,
      "åĭĴ": 2186,
      "ç»ıèĲ¥": 2187,
      "æĲľ": 2188,
      "ĠU": 2189,
      "æĢķ": 2190,
      "!!": 2191,
      "ç¡¬": 2192,
      "çľŁçļĦ": 2193,
      "å®ľ": 2194,
      "æĹĹ": 2195,
      "æİī": 2196,
      "æľīæķĪ": 2197,
      "åĬª": 2198,
      "è´´": 2199,
      "å§Ĩ": 2200,
      "ç§¯æŀģ": 2201,
      "éĩįçĤ¹": 2202,
      "æĴŃæĶ¾": 2203,
      "ç¬¦": 2204,
      "é£İéĻ©": 2205,
      "æ··": 2206,
      "æ¢ħ": 2207,
      "å¾ĹåĪ°": 2208,
      "çİ°ä»£": 2209,
      "åĩĢ": 2210,
      "éħ¸": 2211,
      "ä½ĵéªĮ": 2212,
      "éº½": 2213,
      "çĹĽ": 2214,
      "çģ¯": 2215,
      "çº¯": 2216,
      "çĮ®": 2217,
      "ç¿»": 2218,
      "ä»·åĢ¼": 2219,
      "éģ¿": 2220,
      "å®¾": 2221,
      "æİ¥åıĹ": 2222,
      "èįĲ": 2223,
      "å°¤": 2224,
      "å¯»": 2225,
      "å°ıæĹ¶": 2226,
      "å°ıè¡ĮæĺŁ": 2227,
      "ç»ıè¿ĩ": 2228,
      "èģĮä¸ļ": 2229,
      "å®¹æĺĵ": 2230,
      "é¥®": 2231,
      "æĬ½": 2232,
      "è¡ĮæĶ¿": 2233,
      "æĢ§çļĦ": 2234,
      "åĩºäºĨ": 2235,
      "æ¤į": 2236,
      "åŁºéĩĳ": 2237,
      "æ´¥": 2238,
      "è·Ŀ": 2239,
      "åĶ±": 2240,
      "æķĪæŀľ": 2241,
      "ä½įäºİ": 2242,
      "æĵįä½ľ": 2243,
      "æĿ¡ä»¶": 2244,
      "åı¥": 2245,
      "æľīäºĽ": 2246,
      "è¯±": 2247,
      "æľĢç»Ī": 2248,
      "æĺ¯åľ¨": 2249,
      "éķľ": 2250,
      "æĪĳåĽ½": 2251,
      "åıĹåĪ°": 2252,
      "èģĶç³»": 2253,
      "å®ŀæĸ½": 2254,
      "è¯¦": 2255,
      "é¥Ń": 2256,
      "æĽ´åĬł": 2257,
      "ç®±": 2258,
      "2015": 2259,
      "ä¹Į": 2260,
      "45": 2261,
      "åħ±åĲĮ": 2262,
      "ä»»åĬ¡": 2263,
      "ĠR": 2264,
      "æ¥ļ": 2265,
      "å»ºè®®": 2266,
      "èİ«": 2267,
      "ä¼Ļ": 2268,
      "æĿ°": 2269,
      "è§Ħæ¨¡": 2270,
      "ä½įç½®": 2271,
      "åħ³éĶ®": 2272,
      "æĹ¶æľŁ": 2273,
      "å¹¶ä¸Ķ": 2274,
      "éľĩ": 2275,
      "åĪº": 2276,
      "èĻĳ": 2277,
      "æģĲ": 2278,
      "ad": 2279,
      "ç¥ĸ": 2280,
      "éº»": 2281,
      "åĪ¸": 2282,
      "åĪ¶éĢł": 2283,
      "èĪ¹": 2284,
      "AP": 2285,
      "å®ĺæĸ¹": 2286,
      "ä¹Łæľī": 2287,
      "åĤ¨": 2288,
      "ä»ª": 2289,
      "è¶³çĲĥ": 2290,
      "çº¸": 2291,
      "äººä»¬": 2292,
      "çĹĩ": 2293,
      "èı²": 2294,
      "%ãĢĤ": 2295,
      "è²": 2296,
      "ä¸¹": 2297,
      "æİĮ": 2298,
      "åľĪ": 2299,
      "è§¦": 2300,
      "æİ¨è¿Ľ": 2301,
      "æľ«": 2302,
      "ä»¥æĿ¥": 2303,
      "äºĭä»¶": 2304,
      "è¿ĩåİ»": 2305,
      "æ³½": 2306,
      "äº¦": 2307,
      "è°·": 2308,
      "åľĨ": 2309,
      "ä½ĵç³»": 2310,
      "è¡¨çİ°": 2311,
      "æİ¨èįĲ": 2312,
      "è¿Ļä¹Ī": 2313,
      "å¥³äºº": 2314,
      "åĪĨéĴŁ": 2315,
      "ä¼Ł": 2316,
      "éģŃ": 2317,
      "è´·": 2318,
      "ç®Ģåįķ": 2319,
      "çĭĤ": 2320,
      "us": 2321,
      "01": 2322,
      "èĤ¯": 2323,
      "æİ¨åĬ¨": 2324,
      "è°ĥæŁ¥": 2325,
      "æĪĳä»¬çļĦ": 2326,
      "èĥ¡": 2327,
      "éŀ": 2328,
      "é¬": 2329,
      "åĩºçĶŁ": 2330,
      "çĪ¸": 2331,
      "198": 2332,
      "æ°ĳæĹı": 2333,
      "ä¼°": 2334,
      "æĺ¯ä¸Ģä¸ª": 2335,
      "åŃĻ": 2336,
      "ä¿ĿéĻ©": 2337,
      "åĿļæĮģ": 2338,
      "33": 2339,
      "2014": 2340,
      "æ±¡": 2341,
      "ä¿Ŀéļľ": 2342,
      "è½¨": 2343,
      "ĠL": 2344,
      "æľĢé«ĺ": 2345,
      "éĢĶ": 2346,
      "ä¸Ģç§į": 2347,
      "ç½²": 2348,
      "åĮ»çĸĹ": 2349,
      "èĮĥåĽ´": 2350,
      "è¯¯": 2351,
      "åĩĨå¤ĩ": 2352,
      "åĿı": 2353,
      "éļĲ": 2354,
      "æľīçļĦ": 2355,
      "åĺī": 2356,
      "åıĺåĮĸ": 2357,
      "æ£ĭ": 2358,
      "è¿ħ": 2359,
      "æ²ī": 2360,
      "éĤ®": 2361,
      "èº«ä½ĵ": 2362,
      "å®ĩ": 2363,
      "çĭĹ": 2364,
      "åķªåķª": 2365,
      "ä¿ĿæĮģ": 2366,
      "åŁ¹è®Ń": 2367,
      "åĪĨåĪ«": 2368,
      "åį·": 2369,
      "è¯Ĺ": 2370,
      "ä¸ĩåħĥ": 2371,
      "ä½ľèĢħ": 2372,
      "ä¸¥éĩį": 2373,
      "ow": 2374,
      "ç´¯": 2375,
      "è±ª": 2376,
      "åĮºåŁŁ": 2377,
      "æĬ¥éģĵ": 2378,
      "è¡ĮåĬ¨": 2379,
      "æĮīçħ§": 2380,
      "æ´ģ": 2381,
      "ä¸ĵå®¶": 2382,
      "åĿĽ": 2383,
      "å§Ķåĳĺä¼ļ": 2384,
      "æľºä¼ļ": 2385,
      "åħ±åĴĮ": 2386,
      "çº·": 2387,
      "ä¹ĺ": 2388,
      "å¼ĢæĶ¾": 2389,
      "éªļ": 2390,
      "ç»ĵåĲĪ": 2391,
      "ä»¥ä¸ĭ": 2392,
      "éª¨": 2393,
      "æ¶¦": 2394,
      "èĬĤçĽ®": 2395,
      "è®¡ç®Ĺ": 2396,
      "å±ŀäºİ": 2397,
      "è§ĦåĪĴ": 2398,
      "è§Ī": 2399,
      "ç»ıéªĮ": 2400,
      "æ©": 2401,
      "åĹ": 2402,
      "æīįèĥ½": 2403,
      "èĩªçĶ±": 2404,
      "ç¤¾åĮº": 2405,
      "å®ĭ": 2406,
      "æļĹ": 2407,
      "çī¹èī²": 2408,
      "èµµ": 2409,
      "æĹ¢": 2410,
      "æĢĿæĥ³": 2411,
      "æķĻåŃ¦": 2412,
      "op": 2413,
      "çĶ¨äºİ": 2414,
      "éĺħè¯»": 2415,
      "è·³": 2416,
      "ç½Ĺæĸ¯": 2417,
      "æĪĲåĳĺ": 2418,
      "æ±ł": 2419,
      "æĬĺ": 2420,
      "ä¸»é¢ĺ": 2421,
      "ä¾§": 2422,
      "æķ´ä¸ª": 2423,
      "Ġ/": 2424,
      "åºĦ": 2425,
      "æ²»çĸĹ": 2426,
      "å¹¼": 2427,
      "åīĳ": 2428,
      "ent": 2429,
      "ĠD": 2430,
      "éĤ¦": 2431,
      "èĢ³": 2432,
      "å¹¶ä¸į": 2433,
      "un": 2434,
      "of": 2435,
      "æ¬§æ´²": 2436,
      "æģĭ": 2437,
      "and": 2438,
      "çĶ³è¯·": 2439,
      "è¿Ļæł·çļĦ": 2440,
      "æł¸å¿ĥ": 2441,
      "äº¤æµģ": 2442,
      "çĿ¡": 2443,
      "çĤ®": 2444,
      "ä¼ĺåĬ¿": 2445,
      "åħ¨éĥ¨": 2446,
      "åĩºçļĦ": 2447,
      "èĳ£": 2448,
      "åĪ¶ä½ľ": 2449,
      "ç¼ĵ": 2450,
      "èĻļ": 2451,
      "è´Ńä¹°": 2452,
      "æĪª": 2453,
      "éļĶ": 2454,
      "çĸ¾": 2455,
      "ä¸ªæľĪ": 2456,
      "æı¡": 2457,
      "ag": 2458,
      "èĤ¤": 2459,
      "æī§è¡Į": 2460,
      "åıĸå¾Ĺ": 2461,
      "å¹´è½»": 2462,
      "çĮ«": 2463,
      "å¿«éĢŁ": 2464,
      "åĬ±": 2465,
      "æ£ĢæŁ¥": 2466,
      "åĶ¯": 2467,
      "æĪĺçķ¥": 2468,
      "èī¾": 2469,
      "æĺł": 2470,
      "ED": 2471,
      "æ¡£": 2472,
      "å·§": 2473,
      "ç¼©": 2474,
      "ä¸įåĪ°": 2475,
      "åĸĿ": 2476,
      "ä½łä»¬": 2477,
      "çĺ": 2478,
      "ç¨³å®ļ": 2479,
      "77": 2480,
      "çĴ": 2481,
      "å·¦åı³": 2482,
      "åĢį": 2483,
      "ä¸įå¾Ĺ": 2484,
      "çļĦéĹ®é¢ĺ": 2485,
      "ä¸ĭæĿ¥": 2486,
      "åıªè¦ģ": 2487,
      "âĢĻ": 2488,
      "è¯ļ": 2489,
      "æĸ¹åĲĳ": 2490,
      "èµ¢": 2491,
      "ot": 2492,
      "æ³ķåĽ½": 2493,
      "åĨ¬": 2494,
      "ĠH": 2495,
      "èĤ¥": 2496,
      "ä¸įå°ĳ": 2497,
      "åĿ¦": 2498,
      "å½ĵåľ°": 2499,
      "44": 2500,
      "æ»ĳ": 2501,
      "ç»ĵæĿŁ": 2502,
      "å¦ĤæŃ¤": 2503,
      "åĲİçļĦ": 2504,
      "Ġ1": 2505,
      "å«©": 2506,
      "è°ĥæķ´": 2507,
      "åįģåĪĨ": 2508,
      "èĩªåĬ¨": 2509,
      "å½¢å¼ı": 2510,
      "æĢª": 2511,
      "å°±ä¼ļ": 2512,
      "æ¶Īæģ¯": 2513,
      "é¬¼": 2514,
      "éĶĭ": 2515,
      "è¯Ńè¨Ģ": 2516,
      "éº¦": 2517,
      "ä¸įåı¯": 2518,
      "æ¬²": 2519,
      "éĥ½ä¼ļ": 2520,
      "åı¬": 2521,
      "æĢ»ç»Ł": 2522,
      "åĲĽ": 2523,
      "éĥ½æľī": 2524,
      "æĥĳ": 2525,
      "å®½": 2526,
      "æķĻå¸Ī": 2527,
      "åĳĬè¯ī": 2528,
      "å¹²éĥ¨": 2529,
      "åŁĥ": 2530,
      "èħ¿": 2531,
      "è§Ĥçľĭ": 2532,
      "åĬŀåħ¬": 2533,
      "åĲįç§°": 2534,
      "åı¦å¤ĸ": 2535,
      "éĺ¶æ®µ": 2536,
      "èķ": 2537,
      "æ¯Ķå¦Ĥ": 2538,
      "åĬªåĬĽ": 2539,
      "æī¬": 2540,
      "æĪĲæľ¬": 2541,
      "çļĦæĸ°": 2542,
      "66": 2543,
      "çŁ¿": 2544,
      "éĴĪå¯¹": 2545,
      "å±ı": 2546,
      "èĥ½æºĲ": 2547,
      "ay": 2548,
      "åģı": 2549,
      "å²¸": 2550,
      "æĶ¶åħ¥": 2551,
      "ä¸¾è¡Į": 2552,
      "è¶ĬæĿ¥": 2553,
      "æľĢè¿ĳ": 2554,
      "ĠG": 2555,
      "åĽ¢éĺŁ": 2556,
      "çĸ«æĥħ": 2557,
      "è¯Ĭ": 2558,
      "å°¾": 2559,
      "é»ĺ": 2560,
      "ç¹": 2561,
      "æı´": 2562,
      "éĨĴ": 2563,
      "ä»Ļ": 2564,
      "è¶ĬæĿ¥è¶Ĭ": 2565,
      "æħ°": 2566,
      "æ£Ĵ": 2567,
      "åħ·ä½ĵ": 2568,
      "åķĨä¸ļ": 2569,
      "åŃĶ": 2570,
      "æĪĺäºī": 2571,
      "éĢŁåº¦": 2572,
      "å½ĵçĦ¶": 2573,
      "æ³¨åĨĮ": 2574,
      "éĿ¢ç§¯": 2575,
      "38": 2576,
      "çĦ¶èĢĮ": 2577,
      "ä¸»å¸Ń": 2578,
      "æĮĤ": 2579,
      "èµĮ": 2580,
      "å¥¹çļĦ": 2581,
      "åĭĩ": 2582,
      "é©¾": 2583,
      "å¿ĺ": 2584,
      "çĶŁæĢģ": 2585,
      "EO": 2586,
      "__": 2587,
      "å¼±": 2588,
      "æŃ¤å¤ĸ": 2589,
      "æ¼Ķåĳĺ": 2590,
      "éªĳ": 2591,
      "ä¸ĭçļĦ": 2592,
      "å¾Ĳ": 2593,
      "æĪĲäºº": 2594,
      "37": 2595,
      "ç¨ĭåºı": 2596,
      "è·Į": 2597,
      "æľ±": 2598,
      "åİļ": 2599,
      "å¸¦æĿ¥": 2600,
      "åķĨåĵģ": 2601,
      "çĭ¬ç«ĭ": 2602,
      "ä¿Ŀè¯ģ": 2603,
      "ĠN": 2604,
      "å©Ĩ": 2605,
      "å¾®ä¿¡": 2606,
      "å¾·åĽ½": 2607,
      "è¿ĲèĲ¥": 2608,
      "å¤§éĩı": 2609,
      "éģį": 2610,
      "æľīäºº": 2611,
      "èĪĴ": 2612,
      "åħ¬éĩĮ": 2613,
      "è·¨": 2614,
      "çļĦé«ĺ": 2615,
      "å°Ĭ": 2616,
      "éł": 2617,
      "è£ģ": 2618,
      "åħ¼": 2619,
      "è´¦": 2620,
      "å¨ĺ": 2621,
      "åħ±åĴĮåĽ½": 2622,
      "è¿ĩç¨ĭä¸Ń": 2623,
      "éĤ£äºĽ": 2624,
      "çľŁæŃ£": 2625,
      "åį«çĶŁ": 2626,
      "åĪĨäº«": 2627,
      "çĥŁ": 2628,
      "éĸ": 2629,
      "çĤİ": 2630,
      "åĬĽéĩı": 2631,
      "48": 2632,
      "æĺİæĺ¾": 2633,
      "å¤ļå°ĳ": 2634,
      "æľºåľº": 2635,
      "Ġs": 2636,
      "éĿ¢çļĦ": 2637,
      "æĥ³è¦ģ": 2638,
      "å¤ªéĺ³": 2639,
      "ç«ŀäºī": 2640,
      "ig": 2641,
      "çĲĨè®º": 2642,
      "çĬ¶æĢģ": 2643,
      "ç³ĸ": 2644,
      "åĬłåħ¥": 2645,
      "èĲ½å®ŀ": 2646,
      "é¼ĵ": 2647,
      "éĥĳ": 2648,
      "æļĸ": 2649,
      "æ°ı": 2650,
      "iv": 2651,
      "æķ°åŃĹ": 2652,
      "è±Ĩ": 2653,
      "çķª": 2654,
      "æ½ľ": 2655,
      "å¹´æĿ¥": 2656,
      "æ³Ľ": 2657,
      "ä¸ĢçĤ¹": 2658,
      "ä¾µ": 2659,
      "02": 2660,
      "ä¸įéĶĻ": 2661,
      "å®£ä¼ł": 2662,
      "æķ¢": 2663,
      "çİ©å®¶": 2664,
      "2013": 2665,
      "æĪ´": 2666,
      "åĪĽä¸ļ": 2667,
      "ç¶": 2668,
      "å·¡": 2669,
      "åīĤ": 2670,
      "èµŀ": 2671,
      "æľĢå¤§": 2672,
      "æİªæĸ½": 2673,
      "ä¸Ĭå¸Ĥ": 2674,
      "æĭŁ": 2675,
      "07": 2676,
      "æ¶Īè´¹èĢħ": 2677,
      "å½»": 2678,
      "åĢº": 2679,
      "æĶ¹åıĺ": 2680,
      "æ¯ıå¤©": 2681,
      "çıł": 2682,
      "åĩ¡": 2683,
      "05": 2684,
      "åħ¬å¼Ģ": 2685,
      "od": 2686,
      "çĶŁçī©": 2687,
      "ä¸»ä»»": 2688,
      "åĩıå°ĳ": 2689,
      "æī¶": 2690,
      "ä¸įçŁ¥éģĵ": 2691,
      "ç§°ä¸º": 2692,
      "åľ°åĿĢ": 2693,
      "âĢĺ": 2694,
      "è¿¹": 2695,
      "æľºåħ³": 2696,
      "äººæīį": 2697,
      "çªĹ": 2698,
      "ä¸°å¯Į": 2699,
      "èĢĥèĻĳ": 2700,
      "ĠF": 2701,
      "ir": 2702,
      "ä¿ĥè¿Ľ": 2703,
      "æıı": 2704,
      "éķ¿æľŁ": 2705,
      "os": 2706,
      "æĹ¥æľŁ": 2707,
      "åħĪçĶŁ": 2708,
      "å¾Ħ": 2709,
      "åı¯æĺ¯": 2710,
      "æŀª": 2711,
      "ä»¥åĲİ": 2712,
      "ç¾Ĭ": 2713,
      "çĽ®çļĦ": 2714,
      "ãĢĤ(": 2715,
      "æĻ®éĢļ": 2716,
      "éĢĿ": 2717,
      "äººç±»": 2718,
      "ä¿Ħç½Ĺæĸ¯": 2719,
      "çħ§çīĩ": 2720,
      "çĶŁåĳ½": 2721,
      "é©»": 2722,
      "çļĦä¸Ģä¸ª": 2723,
      "æ·¡": 2724,
      "éļĨ": 2725,
      "æ¼Ĥ": 2726,
      "çļĦæĥħåĨµ": 2727,
      "ç»ķ": 2728,
      "ä»ģ": 2729,
      "ĠW": 2730,
      "49": 2731,
      "èµĦäº§": 2732,
      "å¹´ä»£": 2733,
      "åĩ¯": 2734,
      "éĹŃ": 2735,
      "æħ§": 2736,
      "ä»ĸä»¬çļĦ": 2737,
      "æ¢ģ": 2738,
      "æķı": 2739,
      "çĶ·äºº": 2740,
      "æĲŀ": 2741,
      "åĨľä¸ļ": 2742,
      "æģĴ": 2743,
      "å¤ļçļĦ": 2744,
      "è¿Ķ": 2745,
      "è¯¸": 2746,
      "æĬ¢": 2747,
      "å¼ĥ": 2748,
      "åĪĢ": 2749,
      "æĮĩåĩº": 2750,
      "2010": 2751,
      "Ġb": 2752,
      "åĬłçĽŁ": 2753,
      "èµı": 2754,
      "å¨ľ": 2755,
      "ä¸įåĲĮçļĦ": 2756,
      "æĻĵ": 2757,
      "æĸĩä»¶": 2758,
      "åŃķ": 2759,
      "èĴĤ": 2760,
      "è¯´æĺİ": 2761,
      "å°º": 2762,
      "åħ¬åħ±": 2763,
      "çĥ§": 2764,
      "39": 2765,
      "ç±į": 2766,
      "åİĭåĬĽ": 2767,
      "èµ¶": 2768,
      "ç»Łä¸Ģ": 2769,
      "ç¨ĭåº¦": 2770,
      "å®£å¸ĥ": 2771,
      "ç§»åĬ¨": 2772,
      "ç¡®å®ļ": 2773,
      "æĪĲäºĨ": 2774,
      "æ²¿": 2775,
      "âĢĿãĢģ": 2776,
      "ä¾ĭå¦Ĥ": 2777,
      "åŃ¦å®¶": 2778,
      "ç±»åŀĭ": 2779,
      "èĭĹ": 2780,
      "æ¡ĥ": 2781,
      "å¤§åĪ©": 2782,
      "ç¹ģ": 2783,
      "æĤī": 2784,
      "æ³¡": 2785,
      "åĪĳ": 2786,
      "å¿Ļ": 2787,
      "æīĵéĢł": 2788,
      "çİĽ": 2789,
      "å®ĺç½ĳ": 2790,
      "ä¸ºä»Ģä¹Ī": 2791,
      "2000": 2792,
      "çļĦéĩįè¦ģ": 2793,
      "æĦıè§ģ": 2794,
      "åĳĺå·¥": 2795,
      "èħ¾": 2796,
      "æĭľ": 2797,
      "åıĬæĹ¶": 2798,
      "æ¯ķä¸ļ": 2799,
      "æĤ£èĢħ": 2800,
      "åıªèĥ½": 2801,
      "âĢĵ": 2802,
      "æĮĩå¯¼": 2803,
      "im": 2804,
      "è·µ": 2805,
      "æľºåĪ¶": 2806,
      "æ±¤": 2807,
      "æ´ŀ": 2808,
      "æŃ£å¸¸": 2809,
      "æ¾³éĹ¨": 2810,
      "éĺ»": 2811,
      "èĥŀ": 2812,
      "å¢Ļ": 2813,
      "Ġ,": 2814,
      "èļ": 2815,
      "çĤ¸": 2816,
      "è°ĵ": 2817,
      "æĬµ": 2818,
      "å¹¿åĳĬ": 2819,
      "æĦıè¯Ĩ": 2820,
      "æĿ¥çľĭ": 2821,
      "æľĢä½³": 2822,
      "æ³ī": 2823,
      "65": 2824,
      "è¶ĭ": 2825,
      "Ġp": 2826,
      "åı¦ä¸Ģ": 2827,
      "09": 2828,
      "08": 2829,
      "è¿Ļæ¬¡": 2830,
      "åĬŀæ³ķ": 2831,
      "åĪ·": 2832,
      "78": 2833,
      "æīİ": 2834,
      "æĹģ": 2835,
      "NI": 2836,
      "åįļå½©": 2837,
      "éĤ£ä¸ª": 2838,
      "å¥³æĢ§": 2839,
      "ur": 2840,
      "æĶ¯ä»ĺ": 2841,
      "åºŁ": 2842,
      "åĲİæĿ¥": 2843,
      "è£¡": 2844,
      "ãĢĭ(": 2845,
      "èĥ¶": 2846,
      "ç¼ĺ": 2847,
      "é«ĺæ¸ħ": 2848,
      "å¼Ĺ": 2849,
      "2012": 2850,
      "ç§¦": 2851,
      "ab": 2852,
      "çĦ¦": 2853,
      "ç¾¤ä¼Ĺ": 2854,
      "åĳĪ": 2855,
      "åŃĲçļĦ": 2856,
      "å°ĳå¥³": 2857,
      "è´¯": 2858,
      "ĠE": 2859,
      "åģļå¥½": 2860,
      "æ»¡è¶³": 2861,
      "å®īè£ħ": 2862,
      "æĪĲç»©": 2863,
      "æĮ¯": 2864,
      "çļĦåıĳå±ķ": 2865,
      "éĿ¢å¯¹": 2866,
      "éĢļå¸¸": 2867,
      "ç©´": 2868,
      "çĽ¸ä¿¡": 2869,
      "è´¸æĺĵ": 2870,
      "æ¯«": 2871,
      "å§ĵ": 2872,
      "èİī": 2873,
      "Ġ2": 2874,
      "èĢĲ": 2875,
      "å¤ļæķ°": 2876,
      "å®Įæķ´": 2877,
      "é¾Ħ": 2878,
      "34": 2879,
      "æķ°éĩı": 2880,
      "ĠK": 2881,
      "å°¤åħ¶": 2882,
      "ç½ĳä¸Ĭ": 2883,
      "æį·": 2884,
      "åıĳæĮ¥": 2885,
      "çľŁå®ŀ": 2886,
      "æĺİç¡®": 2887,
      "ä¸Ńæĸĩ": 2888,
      "æł·çļĦ": 2889,
      "æ¿Ģæĥħ": 2890,
      "éŀĭ": 2891,
      "ä¸īä¸ª": 2892,
      "è¡¡": 2893,
      "æĽ´æĸ°": 2894,
      "è®¾æĸ½": 2895,
      "åĮĸçļĦ": 2896,
      "åĴ¨": 2897,
      "æ·«": 2898,
      "èĪ°": 2899,
      "åıĳè¡¨": 2900,
      "åĨįæ¬¡": 2901,
      "éŃĤ": 2902,
      "åħħåĪĨ": 2903,
      "è¦Ĩ": 2904,
      "æĬ±": 2905,
      "å¹¿å·ŀ": 2906,
      "é£Łåĵģ": 2907,
      "éĩĮçļĦ": 2908,
      "äºĭä¸ļ": 2909,
      "çĮĽ": 2910,
      "åĺ´": 2911,
      "75": 2912,
      "é©¶": 2913,
      "è¿Ĳè¡Į": 2914,
      "èµļ": 2915,
      "ä¸ºä¸»": 2916,
      "03": 2917,
      "åĩłä¸ª": 2918,
      "è®ºåĿĽ": 2919,
      "åıĳè¡Į": 2920,
      "04": 2921,
      "æī«": 2922,
      "æĽ¿": 2923,
      "åĬĽçļĦ": 2924,
      "æ°§": 2925,
      "æļĤ": 2926,
      "åĪĽéĢł": 2927,
      "Ġ3": 2928,
      "éĶģ": 2929,
      "èĩªæĭį": 2930,
      "æ®Ĭ": 2931,
      "um": 2932,
      "çģ¾": 2933,
      "çĶµèĦĳ": 2934,
      "æ·±åħ¥": 2935,
      "åĩºçīĪ": 2936,
      "éĿĴå¹´": 2937,
      "å¤§éĻĨ": 2938,
      "å®īæİĴ": 2939,
      "äººå£«": 2940,
      "app": 2941,
      "ä¸Ńåħ±": 2942,
      "å¯º": 2943,
      "é¢Ĺ": 2944,
      "èĿ": 2945,
      "Ġm": 2946,
      "çłĶåıĳ": 2947,
      "çº½": 2948,
      "ç¡®ä¿Ŀ": 2949,
      "åĽłç´ł": 2950,
      "æĢ§æĦŁ": 2951,
      "æķ´ä½ĵ": 2952,
      "èµĦæľ¬": 2953,
      "èī²çļĦ": 2954,
      "ä¸Ģå¹´": 2955,
      "çĽ¸å¯¹": 2956,
      "å®¿": 2957,
      "æ²Ī": 2958,
      "2011": 2959,
      "æ¬¢è¿İ": 2960,
      "å®ĥä»¬": 2961,
      "68": 2962,
      "em": 2963,
      "äººçī©": 2964,
      "åįĩçº§": 2965,
      "æ®ĭ": 2966,
      "èĥ¸": 2967,
      "å¦Īå¦Ī": 2968,
      "èģĬ": 2969,
      "è¿«": 2970,
      "ç½ĳåĿĢ": 2971,
      "åĦ¿ç«¥": 2972,
      "æķĮ": 2973,
      "äºĨä¸Ģä¸ª": 2974,
      "ä¼į": 2975,
      "éĢĥ": 2976,
      "åľ³": 2977,
      "æ¹¿": 2978,
      "åĴ¨è¯¢": 2979,
      "åħĦ": 2980,
      "éĩįå¤§": 2981,
      "å¤º": 2982,
      "å¥ĭ": 2983,
      "å¿Ĩ": 2984,
      "åİ»å¹´": 2985,
      "åĨħçļĦ": 2986,
      "é¦ĸåħĪ": 2987,
      "~~": 2988,
      "åĮ»çĶŁ": 2989,
      "è¯ĳ": 2990,
      "æľĢå¤§çļĦ": 2991,
      "èĢĥè¯ķ": 2992,
      "çĩĥ": 2993,
      "çŃ¹": 2994,
      "æ²Ł": 2995,
      "éĿ©åĳ½": 2996,
      "éĩįæĸ°": 2997,
      "å®ĮåĸĦ": 2998,
      "è¢ľ": 2999,
      "æī¾åĪ°": 3000,
      "é»İ": 3001,
      "ç¯®": 3002,
      "Â°": 3003,
      "åĩłä¹İ": 3004,
      "éĢĴ": 3005,
      "è°ĭ": 3006,
      "FI": 3007,
      "ç¼ĸè¾ĳ": 3008,
      "çĪ·": 3009,
      "æŃ»äº¡": 3010,
      "ä¹Łä¼ļ": 3011,
      "è§ĦèĮĥ": 3012,
      "çĽ¸å½ĵ": 3013,
      "æ·±åľ³": 3014,
      "ãĢĭãĢģ": 3015,
      "è£¸": 3016,
      "åĿ¡": 3017,
      "äºķ": 3018,
      "éĢĤåĲĪ": 3019,
      "ä¾ĽåºĶ": 3020,
      "åį°åº¦": 3021,
      "æ¢°": 3022,
      "å¹³åĿĩ": 3023,
      "æĦıä¹ī": 3024,
      "oo": 3025,
      "äºĮåįģ": 3026,
      "åł¡": 3027,
      "éĵģè·¯": 3028,
      "èªī": 3029,
      "åģ¶": 3030,
      "69": 3031,
      "æĥ¯": 3032,
      "åĬ¨åĬĽ": 3033,
      "åįıä¼ļ": 3034,
      "åĢ¾": 3035,
      "ex": 3036,
      "å¨±ä¹ĲåŁİ": 3037,
      "éĻįä½İ": 3038,
      "èĢĮæĺ¯": 3039,
      "æĩĤ": 3040,
      "ç»Łè®¡": 3041,
      "æĺ¯ä¸Ģç§į": 3042,
      "è¹": 3043,
      "å¼ķèµ·": 3044,
      "ĠID": 3045,
      "æŃ¤æ¬¡": 3046,
      "åĬ¨çī©": 3047,
      "çĶ¨çļĦ": 3048,
      "æĻ¨": 3049,
      "çıį": 3050,
      "ç»ıå¸¸": 3051,
      "çģŃ": 3052,
      "è®¾ç½®": 3053,
      "æĳ¸": 3054,
      "ä¸¾åĬŀ": 3055,
      "åŁºåľ°": 3056,
      "åħļçļĦ": 3057,
      "å®ŀéªĮ": 3058,
      "éĽĨä¸Ń": 3059,
      "è¯¾ç¨ĭ": 3060,
      "å¹»": 3061,
      "å¤§ä¼ļ": 3062,
      "æł¹æľ¬": 3063,
      "è½¦è¾Ĩ": 3064,
      "æĳĨ": 3065,
      "åŁ¹åħ»": 3066,
      "è½¦ç«Ļ": 3067,
      "æ´ª": 3068,
      "åĲĮåŃ¦": 3069,
      "ãģ®": 3070,
      "ç½ĳåıĭ": 3071,
      "è®¤è¯Ĩ": 3072,
      "æĭ¼": 3073,
      "ç¥Ŀ": 3074,
      "ç£¨": 3075,
      "æ¦ľ": 3076,
      "æµĵ": 3077,
      "èĩªèº«": 3078,
      "åĲįçļĦ": 3079,
      "çĪ½": 3080,
      "32": 3081,
      "æ¯ıä¸ª": 3082,
      "å¥³åŃ©": 3083,
      "æĳĩ": 3084,
      "çľĭçĿĢ": 3085,
      "æµĭè¯ķ": 3086,
      "å¿į": 3087,
      "çĽĳç®¡": 3088,
      "æĻĭ": 3089,
      "éªĹ": 3090,
      "å¡ĳ": 3091,
      "æĿľ": 3092,
      "åįıè®®": 3093,
      "ç§Ĵ": 3094,
      "åĵªäºĽ": 3095,
      "è·Ŀç¦»": 3096,
      "ĠãĢĬ": 3097,
      "çĶĺ": 3098,
      "ä¸ĭéĻį": 3099,
      "å¿ĥçĲĨ": 3100,
      "æ·»": 3101,
      "éĩįè¦ģçļĦ": 3102,
      "500": 3103,
      "ub": 3104,
      "æģ¢": 3105,
      "è®°å½ķ": 3106,
      "éĩįåºĨ": 3107,
      "å°ĳå¦ĩ": 3108,
      "åıĮæĸ¹": 3109,
      "æĭĶ": 3110,
      "ul": 3111,
      "æ³ķéĻ¢": 3112,
      "è¾ħ": 3113,
      "çµ": 3114,
      "å¤©æ´¥": 3115,
      "æĹłè®º": 3116,
      "2021": 3117,
      "th": 3118,
      "åħ¬åĽŃ": 3119,
      "å½©ç¥¨": 3120,
      "çĵľ": 3121,
      "06": 3122,
      "æ¨ª": 3123,
      "ä¹Ķ": 3124,
      "ç´«": 3125,
      "æ¬£": 3126,
      "çĲĥéĺŁ": 3127,
      "çĶľ": 3128,
      "å±ħæ°ĳ": 3129,
      "å¢¨": 3130,
      "å·¥åħ·": 3131,
      "åĽ½äº§": 3132,
      "):": 3133,
      "--------": 3134,
      "çļĦåľ°æĸ¹": 3135,
      "äºİæĺ¯": 3136,
      "éĶħ": 3137,
      "ç½ļ": 3138,
      "ç¦ıåĪ©": 3139,
      "æ¯įäº²": 3140,
      "å¦Ĥä»Ĭ": 3141,
      "å¹´åº¦": 3142,
      "ä¸»æĮģ": 3143,
      "äºĭæĥħ": 3144,
      "Ġof": 3145,
      "ç»ıåİĨ": 3146,
      "æĪĺæĸĹ": 3147,
      "éĶ¦": 3148,
      "ation": 3149,
      "æ§": 3150,
      "å»ī": 3151,
      "çĽĳçĿ£": 3152,
      "58": 3153,
      "å¹¿ä¸ľ": 3154,
      "è§Ĵèī²": 3155,
      "çªģçĦ¶": 3156,
      "å°±åı¯ä»¥": 3157,
      "æī£": 3158,
      "å®ŀè·µ": 3159,
      "éģ¿åħį": 3160,
      "éĻ·": 3161,
      "éĢĿä¸ĸ": 3162,
      "å½¹": 3163,
      "è´¹çĶ¨": 3164,
      "ç»ĦæĪĲ": 3165,
      "èµ«": 3166,
      "è¯Ħä»·": 3167,
      "åıĳå±ķçļĦ": 3168,
      "tp": 3169,
      "ç¬¬åĽĽ": 3170,
      "å®ĥçļĦ": 3171,
      "æ¼Ĥäº®": 3172,
      "è¿ģ": 3173,
      "é¸Ł": 3174,
      "ia": 3175,
      "éĩĩåıĸ": 3176,
      "æĻ¶": 3177,
      "é¦ĸæ¬¡": 3178,
      "æĽ¾ç»ı": 3179,
      "è¿ŀç»Ń": 3180,
      "åĩĮ": 3181,
      "ç¬¬ä¸Ģæ¬¡": 3182,
      "çĲĨè§£": 3183,
      "èº«ä»½": 3184,
      "åĪĨç±»": 3185,
      "çĮª": 3186,
      "å®ħ": 3187,
      "ç«¹": 3188,
      "å£°éŁ³": 3189,
      "ç»ıçĲĨ": 3190,
      "åıįåºĶ": 3191,
      "èį·": 3192,
      "ç¦»å¼Ģ": 3193,
      "åĲ¸å¼ķ": 3194,
      "åĨłåĨĽ": 3195,
      "ç»Ŀå¯¹": 3196,
      "æķ¬": 3197,
      "è®©äºº": 3198,
      "çīĪæĿĥ": 3199,
      "46": 3200,
      "åĨľæĿĳ": 3201,
      "è¢Ń": 3202,
      "æİĴåĲį": 3203,
      "åħ±äº§": 3204,
      "ä»ĵ": 3205,
      "ä¸Ģä½į": 3206,
      "æ®ĸ": 3207,
      "2009": 3208,
      "é«ĺçļĦ": 3209,
      "è½¨éģĵ": 3210,
      "å¯Ĵ": 3211,
      "ä»¥åīį": 3212,
      "å¯¹æĸ¹": 3213,
      "è¯±æĥĳ": 3214,
      "é©±": 3215,
      "è£¤": 3216,
      "çľĭçľĭ": 3217,
      "ct": 3218,
      "æĺĮ": 3219,
      "å¿ł": 3220,
      "å¯¿": 3221,
      "è½´": 3222,
      "åĸ·": 3223,
      "åķ¦": 3224,
      "éķ¿çļĦ": 3225,
      "éĢĲæ¸Ĳ": 3226,
      "éĤĢ": 3227,
      "ä¼ĺç§Ģ": 3228,
      "å®ļçļĦ": 3229,
      "æģ¢å¤į": 3230,
      "GR": 3231,
      "èģĶçĽŁ": 3232,
      "åĩ¤": 3233,
      "çĲ´": 3234,
      "ä¸»æĴŃ": 3235,
      "ç¬¦åĲĪ": 3236,
      "å²Ĺ": 3237,
      "Ġc": 3238,
      "åĴĸ": 3239,
      "ä¸Ģå®¶": 3240,
      "æĬķåħ¥": 3241,
      "å¾Ĵ": 3242,
      "å¿½": 3243,
      "è¾ī": 3244,
      "èĳ£äºĭ": 3245,
      "åįģäºĮ": 3246,
      "é£İæł¼": 3247,
      "æķĻæİĪ": 3248,
      "åĬŀçĲĨ": 3249,
      "è¯¦ç»Ĩ": 3250,
      "ĠåŁºæľ¬": 3251,
      "éī": 3252,
      "çīĪæľ¬": 3253,
      "å¤ļä¸ª": 3254,
      "è¯Ħè®º": 3255,
      "æĺ¨": 3256,
      "èĩªæħ°": 3257,
      "æľºåĻ¨": 3258,
      "//": 3259,
      "ç·": 3260,
      "æĿ¥äºĨ": 3261,
      "è¿ĳå¹³": 3262,
      "å¥Ī": 3263,
      "ä»Ķ": 3264,
      "ä½©": 3265,
      "æİ¨åĩº": 3266,
      "åĢ¼å¾Ĺ": 3267,
      "å¹³æĸ¹": 3268,
      "çĤ¼": 3269,
      "åĨħéĥ¨": 3270,
      "èĨľ": 3271,
      "å¤§åħ¨": 3272,
      "ä»¥ä¸º": 3273,
      "çĸ¾çĹħ": 3274,
      "åĨĽäºĭ": 3275,
      "èľľ": 3276,
      "åıĤèĢĥ": 3277,
      "éĥİ": 3278,
      "ç»´æĬ¤": 3279,
      "åľŁåľ°": 3280,
      "æµĻ": 3281,
      "å¹¸ç¦ı": 3282,
      "âĢĿãĢģâĢľ": 3283,
      "éĥ½ä¸į": 3284,
      "å£ģ": 3285,
      "ang": 3286,
      "ä»įçĦ¶": 3287,
      "èµĸ": 3288,
      "åĨĴ": 3289,
      "å½±éĻ¢": 3290,
      "ä¹łè¿ĳå¹³": 3291,
      "ç£ģ": 3292,
      "éĵº": 3293,
      "å¾¡": 3294,
      "èį¡": 3295,
      "å¼ºè°ĥ": 3296,
      "èĲ¥éĶĢ": 3297,
      "è¿Ľè¡ĮäºĨ": 3298,
      "ĠåŁºæľ¬èµĦæĸĻ": 3299,
      "æ°ĳä¸»": 3300,
      "æŁĶ": 3301,
      "å¦¹åŃĲ": 3302,
      "ç¨¿": 3303,
      "ä¸¥æł¼": 3304,
      "ä»Ģéº½": 3305,
      "47": 3306,
      "éī´": 3307,
      "åľ¨è¿Ļ": 3308,
      "ç¾½": 3309,
      "çİ°å®ŀ": 3310,
      "éĢļçŁ¥": 3311,
      "èĢħçļĦ": 3312,
      "åĩĿ": 3313,
      "èĪį": 3314,
      "æĲľç´¢": 3315,
      "èħĲ": 3316,
      "çĪ¶äº²": 3317,
      "âĸ": 3318,
      "æĸ¹ä¾¿": 3319,
      "ĠâĢľ": 3320,
      "ter": 3321,
      "äººä½ĵ": 3322,
      "ä¸»åĬ¨": 3323,
      "æĭĵ": 3324,
      "ĠUNI": 3325,
      "æ¡Į": 3326,
      "59": 3327,
      "èĪªç©º": 3328,
      "Ġ/>": 3329,
      "ä¸ĢåĪĩ": 3330,
      "åħ¬å¸ĥ": 3331,
      "æĹ¦": 3332,
      "éĥŃ": 3333,
      "çī¹æ®Ĭ": 3334,
      "JK": 3335,
      "ĠçļĦ": 3336,
      "è£Ĥ": 3337,
      "åĲĮæł·": 3338,
      "æĸ½å·¥": 3339,
      "è¾Ľ": 3340,
      ",ãĢĬ": 3341,
      "ç»ª": 3342,
      "åľĭ": 3343,
      "http": 3344,
      "çİ°è±¡": 3345,
      "è´¡": 3346,
      "èĭ±è¯Ń": 3347,
      "å°¼äºļ": 3348,
      "ç¢İ": 3349,
      "å¥³åŃĲ": 3350,
      "ä¼ĺåĮĸ": 3351,
      "æįķ": 3352,
      "çļĦæĹ¶éĹ´": 3353,
      "å¢ŀå¼º": 3354,
      "å¥ı": 3355,
      "éģĵè·¯": 3356,
      "æ²ĥ": 3357,
      "å±ķç¤º": 3358,
      "æ£Ģæµĭ": 3359,
      "âĨ": 3360,
      "ä¼ļæľī": 3361,
      "Ġd": 3362,
      "å°½ç®¡": 3363,
      "çŃīçŃī": 3364,
      "çī¹çĤ¹": 3365,
      "æĥ³åĪ°": 3366,
      "èĤĮ": 3367,
      "éĻĦè¿ĳ": 3368,
      "æĮĳæĪĺ": 3369,
      "åįĵ": 3370,
      "å®¶çļĦ": 3371,
      "å±±ä¸ľ": 3372,
      "åİŁåĪĻ": 3373,
      "åĩŃ": 3374,
      "èĭ¹": 3375,
      "æİ¨å¹¿": 3376,
      "è¦ĸ": 3377,
      "ä¹Łåı¯ä»¥": 3378,
      "å¼Ħ": 3379,
      "æĭħä»»": 3380,
      "æ£ĭçīĮ": 3381,
      "æľ¬èº«": 3382,
      "èĤ¯å®ļ": 3383,
      "ä»İèĢĮ": 3384,
      "åĪ«äºº": 3385,
      "ä¿Ĺ": 3386,
      "è¯ģæĺİ": 3387,
      "79": 3388,
      "éĹª": 3389,
      "è®Ńç»ĥ": 3390,
      "ç»Ĩèĥŀ": 3391,
      "æĹĭ": 3392,
      "è´¢æĶ¿": 3393,
      "å¿«ä¹Ĳ": 3394,
      "èĢĹ": 3395,
      "èĤ¡ä»½": 3396,
      "åĽ½æ°ĳ": 3397,
      "éĹ²": 3398,
      "èĭ¹æŀľ": 3399,
      "åĪ©çĽĬ": 3400,
      "èµĶ": 3401,
      "çĲĨå¿µ": 3402,
      "è©": 3403,
      "ä¸ĭåįĪ": 3404,
      "Ġf": 3405,
      "ä¼¸": 3406,
      "å¥³åĦ¿": 3407,
      "æĺİæĺŁ": 3408,
      "å¹¿æ³Ľ": 3409,
      "APH": 3410,
      "ä¹ĭéĹ´çļĦ": 3411,
      "CJK": 3412,
      "GRAPH": 3413,
      "FIED": 3414,
      "ĠIDEO": 3415,
      "ĠUNIFIED": 3416,
      "ĠIDEOGRAPH": 3417,
      "éľ¸": 3418,
      "å¸ħ": 3419,
      "æ·ĺ": 3420,
      "ut": 3421,
      "æĮº": 3422,
      "åĵ²": 3423,
      "çĭł": 3424,
      "åħ½": 3425,
      "2008": 3426,
      "å®ı": 3427,
      "è·ĥ": 3428,
      "oc": 3429,
      "å¹´åīį": 3430,
      "ç±»ä¼¼": 3431,
      "://": 3432,
      "çļĦå·¥ä½ľ": 3433,
      "èĥİ": 3434,
      "éħ·": 3435,
      "çĬ¶åĨµ": 3436,
      "76": 3437,
      "å²©": 3438,
      "å½±çīĩ": 3439,
      "èĸĦ": 3440,
      "èĢ¶": 3441,
      "56": 3442,
      "èıĮ": 3443,
      "æĢ§èĥ½": 3444,
      "èĤ¡ç¥¨": 3445,
      "éĵ¾æİ¥": 3446,
      "åħ¬åı¸çļĦ": 3447,
      "ãĢĭãĢģãĢĬ": 3448,
      "æľºæ¢°": 3449,
      "èī²æĥħ": 3450,
      "çģ°": 3451,
      "ä¹ĭå¤ĸ": 3452,
      "çĶ·åŃĲ": 3453,
      "åĶ¯ä¸Ģ": 3454,
      "??": 3455,
      "ç»Īäºİ": 3456,
      "ç»ıåħ¸": 3457,
      "æµ®": 3458,
      "æĸĩæĺİ": 3459,
      "çĽĲ": 3460,
      "åĲĦåľ°": 3461,
      "ä¸ĩäºº": 3462,
      "é»Ħéĩĳ": 3463,
      "è¿ħéĢŁ": 3464,
      "Ġ4": 3465,
      "ä¸įäºĨ": 3466,
      "çĿĽ": 3467,
      "æ¯Ķä¾ĭ": 3468,
      "çĪ¶æ¯į": 3469,
      "ä»¿": 3470,
      "æĺ¯ä»Ģä¹Ī": 3471,
      "ä½¿å¾Ĺ": 3472,
      "å½ĵåīį": 3473,
      "ç©ºæ°Ķ": 3474,
      "åĬłä¸Ĭ": 3475,
      "éĻĲåĪ¶": 3476,
      "äººæ°ĳåħ±åĴĮåĽ½": 3477,
      "å°Ŀ": 3478,
      "ind": 3479,
      "æ¯ģ": 3480,
      "æĤ¨çļĦ": 3481,
      "è´§å¸ģ": 3482,
      "è¢ĭ": 3483,
      "ä»£çĲĨ": 3484,
      "çĵ¶": 3485,
      "å°ĺ": 3486,
      "å®ŀåĬĽ": 3487,
      "è¯ģåĪ¸": 3488,
      "éĥ½åľ¨": 3489,
      "çªģçł´": 3490,
      "çĽĪ": 3491,
      "çĥ¦": 3492,
      "æŀģåĵģ": 3493,
      "èĳ¡": 3494,
      "åį¢": 3495,
      "åĪĨä¸º": 3496,
      "æºª": 3497,
      "æĽ´æĺ¯": 3498,
      "åħģ": 3499,
      "èī³": 3500,
      "äºĭå®ŀ": 3501,
      "ä¼łæĴŃ": 3502,
      "ä¸Ģå¤©": 3503,
      "å¯¸": 3504,
      "æ»´": 3505,
      "è¿ŀæİ¥": 3506,
      "æĻļä¸Ĭ": 3507,
      "çº¹": 3508,
      "éĩĮéĿ¢": 3509,
      "åĲ¨": 3510,
      "æ¸ł": 3511,
      "æĴĳ": 3512,
      "ers": 3513,
      "åıĶ": 3514,
      "æ²»çĲĨ": 3515,
      "æĭĴ": 3516,
      "çĶŁçļĦ": 3517,
      "å«Į": 3518,
      "æķ¦": 3519,
      "åħ¬å®ī": 3520,
      "å¸ķ": 3521,
      "ç¢°": 3522,
      "åĦ¿åŃĲ": 3523,
      "ãĥ¼": 3524,
      "æľīçĤ¹": 3525,
      "éĻ¶": 3526,
      "åİ»äºĨ": 3527,
      "è§ĦåĪĻ": 3528,
      "çºªå¿µ": 3529,
      "éļıåĲİ": 3530,
      "çļĦäºĭæĥħ": 3531,
      "åľ°ä½į": 3532,
      "æĪĲéĥ½": 3533,
      "çĭ¼": 3534,
      "å¤Ħäºİ": 3535,
      "ä¸ĬäºĨ": 3536,
      "Ġåľ¨": 3537,
      "æĪĲéķ¿": 3538,
      "åĲĮæ¯Ķ": 3539,
      "è¾£": 3540,
      "åŁºäºİ": 3541,
      "æ¸ħæ¥ļ": 3542,
      "å¿ħè¦ģ": 3543,
      "åĲĪçĲĨ": 3544,
      "èĩ£": 3545,
      "çĪ±æĥħ": 3546,
      "ç¾İä¸½": 3547,
      "æľīäºĨ": 3548,
      "æĿ¥åĪ°": 3549,
      "å¿ĥçļĦ": 3550,
      "ä¸ĭéĿ¢": 3551,
      "åĮħåĲ«": 3552,
      "å¤§éĥ¨åĪĨ": 3553,
      "å¾ª": 3554,
      "æµ´": 3555,
      "çĪ±çļĦ": 3556,
      "åĩºåı£": 3557,
      "åĲĪåĲĮ": 3558,
      "å°ĳå¹´": 3559,
      "è®©æĪĳ": 3560,
      "ä¸Ģå®ļè¦ģ": 3561,
      "æ¶īåıĬ": 3562,
      "äº«åıĹ": 3563,
      "èĦĤ": 3564,
      "è§£éĩĬ": 3565,
      "åĽ½åĬ¡": 3566,
      "çĻ¾å®¶": 3567,
      "çļĨ": 3568,
      "åĩī": 3569,
      "æĬĢèĥ½": 3570,
      "æ°ĳåĽ½": 3571,
      "ä¸ĢåĲį": 3572,
      "è®¨è®º": 3573,
      "è´·æ¬¾": 3574,
      "åĪ¶å®ļ": 3575,
      "åĽ°éļ¾": 3576,
      "ä¹łæĥ¯": 3577,
      "äººæ°ĳå¸ģ": 3578,
      "å¥ī": 3579,
      "æ³¥": 3580,
      "åľ°äº§": 3581,
      "æľ¬æĸĩ": 3582,
      "å£®": 3583,
      "æĸ¯çī¹": 3584,
      "çĨĬ": 3585,
      "æĸĩåŃ¦": 3586,
      "ç»¿èī²": 3587,
      "è¿Ĳè¾ĵ": 3588,
      "ä¾ĿçĦ¶": 3589,
      "æĿŃ": 3590,
      "çļ®èĤ¤": 3591,
      "åģ¿": 3592,
      "ä¸Ŀè¢ľ": 3593,
      "äººåľ¨": 3594,
      "è¶ħçº§": 3595,
      "å§¿": 3596,
      "ip": 3597,
      "300": 3598,
      "æĺ¯ä¸ª": 3599,
      "çļĦæĸ¹å¼ı": 3600,
      "å°±åľ¨": 3601,
      "âĹ": 3602,
      "æīĵå¼Ģ": 3603,
      "æ±¡æŁĵ": 3604,
      "æ¼«çĶ»": 3605,
      "å¦ĸ": 3606,
      "çĲĥåĳĺ": 3607,
      "98": 3608,
      "ä¼¼ä¹İ": 3609,
      "å°±ä¸ļ": 3610,
      "âĢĿ(": 3611,
      "èº«æĿĲ": 3612,
      "æ¼ı": 3613,
      "ä¸įå¥½": 3614,
      "éĤ»": 3615,
      "å°ĸ": 3616,
      "åįĹäº¬": 3617,
      "è¶ĭåĬ¿": 3618,
      "åĪĬ": 3619,
      "çĽ¸æ¯Ķ": 3620,
      "æ±Ĺ": 3621,
      "åħ¶å®ĥ": 3622,
      "åĪ©äºļ": 3623,
      "åı¬å¼Ģ": 3624,
      "åıĺå¾Ĺ": 3625,
      "é«ĺéĢŁ": 3626,
      "å¹¶æ²¡æľī": 3627,
      "æķĪçİĩ": 3628,
      "ä¸ľäº¬": 3629,
      "çħ¤": 3630,
      "åĪ°åºķ": 3631,
      "ä¸įåĨį": 3632,
      "é£ŀæľº": 3633,
      "é¢ľåĢ¼": 3634,
      "æĪĲæŀľ": 3635,
      "åĭ¤": 3636,
      "èº«ä¸Ĭ": 3637,
      "å¡«": 3638,
      "ĠĠ": 3639,
      "æĮĩæķ°": 3640,
      "çĹħæ¯Ĵ": 3641,
      "åľĸ": 3642,
      "Ġ18": 3643,
      "çİ¯ä¿Ŀ": 3644,
      "åīįå¾Ģ": 3645,
      "è§Ĥä¼Ĺ": 3646,
      "èĬ¯": 3647,
      "æ¯ıå¹´": 3648,
      "43": 3649,
      "åº¦çļĦ": 3650,
      "æĦıæĢĿ": 3651,
      "èĻ«": 3652,
      "2007": 3653,
      "42": 3654,
      "ĠO": 3655,
      "ç¥¥": 3656,
      "ä¹Ļ": 3657,
      "Ġç¬¬": 3658,
      "èĢĢ": 3659,
      "åĲįåŃĹ": 3660,
      "åĬŀåħ¬å®¤": 3661,
      "ĠV": 3662,
      "åħ¹": 3663,
      "æĢ»æĺ¯": 3664,
      "æŃ£ç¡®": 3665,
      "è¿ĺè¦ģ": 3666,
      "ç¤¾ä¼ļä¸»ä¹ī": 3667,
      "èĦī": 3668,
      "è£ħä¿®": 3669,
      "é£Łçī©": 3670,
      "åħ»èĢģ": 3671,
      "ov": 3672,
      "åĬ²": 3673,
      "çĸĨ": 3674,
      "æµĻæ±Ł": 3675,
      "è¾½": 3676,
      "å½¼": 3677,
      "åī©": 3678,
      "åĬłå¿«": 3679,
      "eb": 3680,
      "ä¼Ļä¼´": 3681,
      "ä¸Ńåįİäººæ°ĳåħ±åĴĮåĽ½": 3682,
      "æµ©": 3683,
      "è§Ĥå¯Ł": 3684,
      "èĭ±éĽĦ": 3685,
      "é¢Ħè®¡": 3686,
      "ä»¤äºº": 3687,
      "èĥĮæĻ¯": 3688,
      "åĲ¯åĬ¨": 3689,
      "çľ¼çĿĽ": 3690,
      "å¥³åıĭ": 3691,
      "åħĪè¿Ľ": 3692,
      "og": 3693,
      "å±ķå¼Ģ": 3694,
      "åħ¬ä¼Ĺ": 3695,
      "åģļåĪ°": 3696,
      "åķ¡": 3697,
      "èµ¤": 3698,
      "åĬ¨æ¼«": 3699,
      "åľ¨ä¸ŃåĽ½": 3700,
      "éľį": 3701,
      "if": 3702,
      "æ¢¯": 3703,
      "éĻª": 3704,
      "éĩįè§Ĩ": 3705,
      "åħ´è¶£": 3706,
      "æĽ´å¤ļçļĦ": 3707,
      "çº¿ä¸Ĭ": 3708,
      "çĸ¯": 3709,
      "åįļçī©": 3710,
      "ç¼´": 3711,
      "ä¼ı": 3712,
      "èĴĻåı¤": 3713,
      "èİ²": 3714,
      "èµĽåŃ£": 3715,
      "åĲ¹": 3716,
      "æĻºæħ§": 3717,
      "Ġ10": 3718,
      "æĸĩåŃĹ": 3719,
      "çĴĥ": 3720,
      "å¦Ļ": 3721,
      "æľīçĿĢ": 3722,
      "çķħ": 3723,
      "Ġ5": 3724,
      "æĳĦå½±": 3725,
      "èŀįèµĦ": 3726,
      "æĶ¾åľ¨": 3727,
      "ä¼ĺæĥł": 3728,
      "è´Łè´£äºº": 3729,
      "æ¦Ĥå¿µ": 3730,
      "æī©å¤§": 3731,
      "æĦŁåĪ°": 3732,
      "èĢĮè¨Ģ": 3733,
      "æĶ¹åĸĦ": 3734,
      "å¾®åįļ": 3735,
      "ä¹ı": 3736,
      "æī°": 3737,
      "éģĩåĪ°": 3738,
      "çļĦå½±åĵį": 3739,
      "çĶµåĬ¨": 3740,
      "çºµ": 3741,
      "æľīæīĢ": 3742,
      "èĢģå©Ĩ": 3743,
      "ç¿°": 3744,
      "æľīä¸Ģä¸ª": 3745,
      "åħ±äº§åħļ": 3746,
      "å¤ļç§į": 3747,
      "67": 3748,
      "èģĶèµĽ": 3749,
      "äººå·¥": 3750,
      "åħ¬è·¯": 3751,
      "èĩ³å°ĳ": 3752,
      "æĭįæĳĦ": 3753,
      "æĴŀ": 3754,
      "å¯¹è±¡": 3755,
      "éł»": 3756,
      "ç¿¼": 3757,
      "åĴĸåķ¡": 3758,
      "è³": 3759,
      "å®ª": 3760,
      "å¤įæĿĤ": 3761,
      "ç»ĺ": 3762,
      "ä¸įè¶³": 3763,
      "å±ģ": 3764,
      "æĹ¶çļĦ": 3765,
      "ak": 3766,
      "è¿Ī": 3767,
      "ä½ĵçļĦ": 3768,
      "éĿ¢ä¸´": 3769,
      "çī¢": 3770,
      "èĤº": 3771,
      "çĤ¹åĩ»": 3772,
      "åĬ¨æĢģ": 3773,
      "è¦ĨçĽĸ": 3774,
      "çİ»": 3775,
      "è¿Ľåı£": 3776,
      "å¥³ç¥ŀ": 3777,
      "ä¹ĥ": 3778,
      "å°¿": 3779,
      "èĩªæ²»": 3780,
      "åĽĽå·Ŀ": 3781,
      "çĬ¯ç½ª": 3782,
      "Ġ|": 3783,
      "è®¤çľŁ": 3784,
      "ĠJ": 3785,
      "ä¸įçŁ¥": 3786,
      "èŀįåĲĪ": 3787,
      "Ġthe": 3788,
      "åĬłå·¥": 3789,
      "åĵģè´¨": 3790,
      "å¥¸": 3791,
      "ç¾İçļĦ": 3792,
      "æĶ»åĩ»": 3793,
      "æīĢè°ĵ": 3794,
      "åĵ¦": 3795,
      "æľĢå¥½": 3796,
      "ç»ĻäºĪ": 3797,
      "èģĺ": 3798,
      "å®ŀè¡Į": 3799,
      "æ¶µ": 3800,
      "èĥĨ": 3801,
      "åĪĽä½ľ": 3802,
      "çī©æµģ": 3803,
      "è¸ª": 3804,
      "å¹´åĩºçĶŁ": 3805,
      "åķĨåĬ¡": 3806,
      "95": 3807,
      "åĬ¨ä½ľ": 3808,
      "çļĦä¸»": 3809,
      "æĽ¹": 3810,
      "æŁľ": 3811,
      "å£°æĺİ": 3812,
      "çī©è´¨": 3813,
      "äº¿ç¾İåħĥ": 3814,
      "è²Į": 3815,
      "è¾ĸ": 3816,
      "å¸¦çĿĢ": 3817,
      "ew": 3818,
      "ä¸Ģè·¯": 3819,
      "ä¼ļåľ¨": 3820,
      "æĹ¥å¸¸": 3821,
      "åģ·æĭį": 3822,
      "å¿§": 3823,
      "é«ĺä¸Ń": 3824,
      "å¸ĿåĽ½": 3825,
      "å¤§åŀĭ": 3826,
      "ãĢĭãĢĤ": 3827,
      "æĬķèµĦèĢħ": 3828,
      "éĽ»": 3829,
      "éĴĵ": 3830,
      "æĢĴ": 3831,
      "åıĺæĪĲ": 3832,
      "æ¹ĸåįĹ": 3833,
      "çĩķ": 3834,
      "æĿĨ": 3835,
      "åľ°çĤ¹": 3836,
      "èµĦæł¼": 3837,
      "æ±Łèĭı": 3838,
      "ä¸ľåĮĹ": 3839,
      "æİ¢ç´¢": 3840,
      "è®¾ç«ĭ": 3841,
      "åİ¦": 3842,
      "å¥³çĶŁ": 3843,
      "åį³ä½¿": 3844,
      "ĠæĪĳ": 3845,
      "æ¸¸å®¢": 3846,
      "çĽ´åĪ°": 3847,
      "æŃ¦æ±ī": 3848,
      "å°¸": 3849,
      "çļĦå¥½": 3850,
      "è¿ĳæĹ¥": 3851,
      "å¾Ģå¾Ģ": 3852,
      "å¤§å¤ļæķ°": 3853,
      "å°Ĩåľ¨": 3854,
      "è¡£æľį": 3855,
      "å·ŀå¸Ĥ": 3856,
      "æĲº": 3857,
      "éĻµ": 3858,
      "æ¶Ĥ": 3859,
      "éŃı": 3860,
      "ä¼ļä¸Ĭ": 3861,
      "å·¥ä½ľçļĦ": 3862,
      "è¦ĸéł»": 3863,
      "ä¿Ĭ": 3864,
      "è¡ĮçļĦ": 3865,
      "å¥Ķ": 3866,
      "xx": 3867,
      "ä»ĸåľ¨": 3868,
      "2006": 3869,
      "æĦıå¤§åĪ©": 3870,
      "é©¾é©¶": 3871,
      "å¾Īå¥½": 3872,
      "åĪºæ¿Ģ": 3873,
      "å®¶éķ¿": 3874,
      "éĩĳå±ŀ": 3875,
      "åħħæ»¡": 3876,
      "åį³åı¯": 3877,
      "å°±åĥı": 3878,
      "èµĦè®¯": 3879,
      "è¿ĲçĶ¨": 3880,
      "è¾ŀ": 3881,
      "æĬĢå·§": 3882,
      "æĮĩæłĩ": 3883,
      "å§Ķä¼ļ": 3884,
      "é«ĺçº§": 3885,
      "éħįåĲĪ": 3886,
      "57": 3887,
      "âĢĿâĢľ": 3888,
      "åºĶå½ĵ": 3889,
      "é«ĺåº¦": 3890,
      "å·¥èīº": 3891,
      "å°ıçļĦ": 3892,
      "ä¸įçĶ¨": 3893,
      "æĭĨ": 3894,
      "è§ĤçĤ¹": 3895,
      "51": 3896,
      "æľ¬æ¬¡": 3897,
      "åľ¨çº¿è§Ĥçľĭ": 3898,
      "å¾½": 3899,
      "å¼ºåĮĸ": 3900,
      "64": 3901,
      "åĲįä¸º": 3902,
      "æīĢåľ¨": 3903,
      "ä½ĵçİ°": 3904,
      "è¡¨æ¼Ķ": 3905,
      "å¹¿å¤§": 3906,
      "365": 3907,
      "å¤©çĦ¶": 3908,
      "çĽ¸åĲĮ": 3909,
      "å»·": 3910,
      "æľŁçļĦ": 3911,
      "ä¸¤äºº": 3912,
      "åĲĦä½į": 3913,
      "91": 3914,
      "åı¯èĥ½ä¼ļ": 3915,
      "çļĦå¿ĥ": 3916,
      "å°±èĥ½": 3917,
      "åĩºåİ»": 3918,
      "éĥ¨ç½²": 3919,
      "åĪ©æ¶¦": 3920,
      "æĸ¹éĿ¢çļĦ": 3921,
      "Ch": 3922,
      "ä¼ļåĳĺ": 3923,
      "åħĥç´ł": 3924,
      "åħĭæĸ¯": 3925,
      "å®Ŀå®Ŀ": 3926,
      "ãĥ³": 3927,
      "é«ĺæł¡": 3928,
      "æĽ´å¥½": 3929,
      "èħ°": 3930,
      "ä¸ĭä¸Ģ": 3931,
      "æİ¥è§¦": 3932,
      "æ¤įçī©": 3933,
      "ç²Ĺ": 3934,
      "å°ıç¼ĸ": 3935,
      "æĦ¿æĦı": 3936,
      "åĮĸåŃ¦": 3937,
      "åŃ£åº¦": 3938,
      "èİİ": 3939,
      "åŃ¤": 3940,
      "åĲĲ": 3941,
      "å¤§åĬĽ": 3942,
      "å®ĹæķĻ": 3943,
      "æĴ¤": 3944,
      "åħĦå¼Ł": 3945,
      "åĽ½åĬ¡éĻ¢": 3946,
      "åıĳåĬ¨": 3947,
      "å¦Ĥæŀľä½ł": 3948,
      "ä¹ĭä¸Ń": 3949,
      "éģµ": 3950,
      "æĺ¯ä¸į": 3951,
      "åı°åĮĹ": 3952,
      "è´¡çĮ®": 3953,
      "åĢĭ": 3954,
      "å¾Īå¤§": 3955,
      "å¾Īå¿«": 3956,
      "æĮĩæĮ¥": 3957,
      "å¥½åĥı": 3958,
      "æĹ¥æĬ¥": 3959,
      "æĦŁåıĹ": 3960,
      "æī¿æĭħ": 3961,
      "æĪªèĩ³": 3962,
      "éĢĬ": 3963,
      "æİĮæı¡": 3964,
      "æ¸łéģĵ": 3965,
      "éĤª": 3966,
      "äºĭæķħ": 3967,
      "åħ±äº«": 3968,
      "å½±è§Ĩ": 3969,
      "äººå¤§": 3970,
      "BA": 3971,
      "rig": 3972,
      "è®¿éĹ®": 3973,
      "çĬ¹": 3974,
      "è¯´éģĵ": 3975,
      "41": 3976,
      "èĬ¬": 3977,
      "å½¢è±¡": 3978,
      "èĶ¡": 3979,
      "å¤ĸäº¤": 3980,
      "ä¸ľæĸ¹": 3981,
      "æĶ¶çĽĬ": 3982,
      "ç¶²": 3983,
      "pp": 3984,
      "æĹłäºº": 3985,
      "æľĪä»½": 3986,
      "åĬ³åĬ¨": 3987,
      "éĺģ": 3988,
      "ç¢į": 3989,
      "åįģä¸ī": 3990,
      "çĻ¾å®¶ä¹Ĳ": 3991,
      "éĥ¨éĺŁ": 3992,
      "åĲĮå¿Ĺ": 3993,
      "ç²Ĵ": 3994,
      "æŁı": 3995,
      "æĦŁæŁĵ": 3996,
      "ud": 3997,
      "è¡¨è¾¾": 3998,
      "èĩ³ä»Ĭ": 3999,
      "æłı": 4000,
      "åľ°çĲĥ": 4001,
      "æ¸©åº¦": 4002,
      "å¦»åŃĲ": 4003,
      "IP": 4004,
      "çŁ¥åĲį": 4005,
      "çļĦä¸į": 4006,
      "å¨ĥ": 4007,
      "éĢĨ": 4008,
      "æĤ²": 4009,
      "æĦıåĳ³": 4010,
      "52": 4011,
      "æĹ¶å°ļ": 4012,
      "å¤©çļĦ": 4013,
      "2005": 4014,
      "éħįç½®": 4015,
      "åİ¨": 4016,
      "åĽĽä¸ª": 4017,
      "ce": 4018,
      "æ¸¡": 4019,
      "ame": 4020,
      "cn": 4021,
      "æĵ¦": 4022,
      "åłĨ": 4023,
      "çĻĮ": 4024,
      "ç©Ĩ": 4025,
      "èĦı": 4026,
      "æ»¨": 4027,
      "Ġn": 4028,
      "æµ¦": 4029,
      "å°±è¦ģ": 4030,
      "æīĭæ®µ": 4031,
      "æııè¿°": 4032,
      "1000": 4033,
      "æĢĸ": 4034,
      "ç·ļ": 4035,
      "éĩıçļĦ": 4036,
      "åİŁæĸĩ": 4037,
      "è£ħå¤ĩ": 4038,
      "è¿Ł": 4039,
      "æĲ¬": 4040,
      "åĮĹäº¬å¸Ĥ": 4041,
      "ç¡®å®ŀ": 4042,
      "çĲ³": 4043,
      "åįļçī©é¦Ĩ": 4044,
      "æµ·å¤ĸ": 4045,
      "æľĿé²ľ": 4046,
      "åĲĬ": 4047,
      "å¼ķå¯¼": 4048,
      "åĳĪçİ°": 4049,
      "èĩªæĪĳ": 4050,
      "æľºçļĦ": 4051,
      "æĪĴ": 4052,
      "å¤©ä¸ĭ": 4053,
      "èĲĮ": 4054,
      "éĺŁä¼į": 4055,
      "æĪ¿éĹ´": 4056,
      "çī§": 4057,
      "ä¹Łåľ¨": 4058,
      "çī©çĲĨ": 4059,
      "åįĬå¹´": 4060,
      "éĥ¨éķ¿": 4061,
      "æĺ¯ä¸įæĺ¯": 4062,
      "ä¸Ģä¸ªäºº": 4063,
      "åĽŀçŃĶ": 4064,
      "æł¡åĽŃ": 4065,
      "æ¡ĳ": 4066,
      "è½¬è½½": 4067,
      "æŁ³": 4068,
      "ä¹¡æĿĳ": 4069,
      "æĮĸ": 4070,
      "ä¸įç®¡": 4071,
      "å°¤åħ¶æĺ¯": 4072,
      "å¥´": 4073,
      "åħļåĳĺ": 4074,
      "éĵľ": 4075,
      "Ġ199": 4076,
      "åıĬåħ¶": 4077,
      "åĽŀåĪ°": 4078,
      "æĶ¹éĢł": 4079,
      "æģĲæĢĸ": 4080,
      "è½°": 4081,
      "åıįå¯¹": 4082,
      "äººçĶŁ": 4083,
      "æĺĨ": 4084,
      "est": 4085,
      "æīĭæľ¯": 4086,
      "éĢīä¸¾": 4087,
      "çĪ¸çĪ¸": 4088,
      "çļĦä¸»è¦ģ": 4089,
      "æĦĪ": 4090,
      "è½»æĿ¾": 4091,
      "ä¸Ĭè¿°": 4092,
      "èĤĥ": 4093,
      "æĪĳæĥ³": 4094,
      "one": 4095,
      "æħĪ": 4096,
      "54": 4097,
      "nd": 4098,
      "å¤ļæ¬¡": 4099,
      "æĴ¸": 4100,
      "çĭ±": 4101,
      "æįŁå¤±": 4102,
      "ç²®": 4103,
      "OS": 4104,
      "å¹´éĢĿä¸ĸ": 4105,
      ";|": 4106,
      "æ»ļ": 4107,
      "æµģç¨ĭ": 4108,
      "é»Ħèī²": 4109,
      "çļĦåīį": 4110,
      "äººæķ°": 4111,
      "æĪĸè®¸": 4112,
      "è¯ŀ": 4113,
      "æıŃ": 4114,
      "æĹħè¡Į": 4115,
      "çľī": 4116,
      "ä¼ĺè´¨": 4117,
      "éĤĵ": 4118,
      "åĽ¢ä½ĵ": 4119,
      "èĲĦ": 4120,
      "å¾Īéļ¾": 4121,
      "å¦Ĩ": 4122,
      "å¯¼æ¼Ķ": 4123,
      "èĤł": 4124,
      "åĪł": 4125,
      "Ġw": 4126,
      "å¤ĸåĽ½": 4127,
      "ä¹Łå°±æĺ¯": 4128,
      "è¥¿äºļ": 4129,
      "åħļå§Ķ": 4130,
      "çĽ¾": 4131,
      "æĥľ": 4132,
      "ä¸ŃåĽ½çļĦ": 4133,
      "æĬ¥åĲį": 4134,
      "ä¸Ĭä¸Ģ": 4135,
      "ä¸ĵéĹ¨": 4136,
      "æ¡Īä»¶": 4137,
      "åİī": 4138,
      "çī¹åĪ«æĺ¯": 4139,
      "PP": 4140,
      "=\"": 4141,
      "æµı": 4142,
      "å¼ķåıĳ": 4143,
      "ç²¾å½©": 4144,
      "çİ»çĴĥ": 4145,
      "è®©ä½ł": 4146,
      "è°±": 4147,
      "è¿ĺåľ¨": 4148,
      "æĦŁè°¢": 4149,
      "å¨ĩ": 4150,
      "ĠæĹ¥": 4151,
      "æĺŁæľŁ": 4152,
      "æĭĸ": 4153,
      "ç«ĭåį³": 4154,
      "çĪĨåıĳ": 4155,
      "è§Ĵåº¦": 4156,
      "art": 4157,
      "å²ģçļĦ": 4158,
      "åºĻ": 4159,
      "æĺ¯åĽłä¸º": 4160,
      "åĴĮå¹³": 4161,
      "æĸ°èĥ½æºĲ": 4162,
      "æī®": 4163,
      "å§ĳ": 4164,
      "ä¸ĭåİ»": 4165,
      "çŃĸçķ¥": 4166,
      "éĤĢè¯·": 4167,
      "53": 4168,
      "æĢİæł·": 4169,
      "é¢ģ": 4170,
      "å§ĭç»Ī": 4171,
      "åľ¨æŃ¤": 4172,
      "åĪ°çļĦ": 4173,
      "åĮ»åŃ¦": 4174,
      "åĮºçļĦ": 4175,
      "æĪĸæĺ¯": 4176,
      "çľŁäºº": 4177,
      "ä»ĬæĹ¥": 4178,
      "æĿĥåĪ©": 4179,
      "çĶ·åıĭ": 4180,
      "èĩªè¡Į": 4181,
      "åĵŃ": 4182,
      "è¿ĩæĿ¥": 4183,
      "ç¢³": 4184,
      "å´ĩ": 4185,
      "åĮ¹": 4186,
      "èĩªä¸»": 4187,
      "åĬłæĭ¿": 4188,
      "æĪĳæĺ¯": 4189,
      "2003": 4190,
      "âĺ": 4191,
      "å¤§å¤§": 4192,
      "æ²ŁéĢļ": 4193,
      "è¼": 4194,
      "çºł": 4195,
      "è¥¿çıŃ": 4196,
      "çĤĴ": 4197,
      "éĺ²æİ§": 4198,
      "se": 4199,
      "é¼ĵåĬ±": 4200,
      "ä¹¾": 4201,
      "ä»İäºĭ": 4202,
      "71": 4203,
      "åī²": 4204,
      "èĤĸ": 4205,
      "çľĭæĿ¥": 4206,
      "çº½çº¦": 4207,
      "æŁ±": 4208,
      "âĶ": 4209,
      "ç»ĦåĲĪ": 4210,
      "èĳ¡èĲĦ": 4211,
      "ç¬¬ä¸Ģä¸ª": 4212,
      "èĬ³": 4213,
      "Ġ8": 4214,
      "èº«è¾¹": 4215,
      "è¾Ī": 4216,
      "èĲ¥ä¸ļ": 4217,
      "2002": 4218,
      "ĠSt": 4219,
      "è¥¿çıŃçīĻ": 4220,
      "èµĭ": 4221,
      "ä»ĸè¯´": 4222,
      "æ°¸è¿ľ": 4223,
      "ç¬¬äºĶ": 4224,
      "62": 4225,
      "è¿½æ±Ĥ": 4226,
      "éĶĻè¿ĩ": 4227,
      "å¸¸è§ģ": 4228,
      "å®ļä½į": 4229,
      "all": 4230,
      "åįļå£«": 4231,
      "éļ¾ä»¥": 4232,
      "ä¾¯": 4233,
      "ä¸Ńå°ı": 4234,
      "å¯¹æŃ¤": 4235,
      "åįģå¹´": 4236,
      "è´¯å½»": 4237,
      "æĭħå¿ĥ": 4238,
      "æľŁå¾ħ": 4239,
      "æĽĿ": 4240,
      "åĪĻæĺ¯": 4241,
      "è¸ı": 4242,
      "é¢ľèī²": 4243,
      "å¸ĥå±Ģ": 4244,
      "åŃŁ": 4245,
      "å¯¹æīĭ": 4246,
      "äºĭåĬ¡": 4247,
      "æħ¢æħ¢": 4248,
      "å¸ĤåľºçļĦ": 4249,
      "ç«ŁçĦ¶": 4250,
      "ç½Ĺé©¬": 4251,
      "ä¾Ŀæį®": 4252,
      "çĽĹ": 4253,
      "ob": 4254,
      "ä¸ĢæĿ¡": 4255,
      "æīĢæľīçļĦ": 4256,
      "æ°Ľ": 4257,
      "æĢģåº¦": 4258,
      "72": 4259,
      "400": 4260,
      "èĹ¤": 4261,
      "å½±éŁ³": 4262,
      "åĲĦç±»": 4263,
      "åħ·å¤ĩ": 4264,
      "çĻ¾åº¦": 4265,
      "è¡¨éĿ¢": 4266,
      "åİŁåĪĽ": 4267,
      "ä¼łå¥ĩ": 4268,
      "åģľæŃ¢": 4269,
      "å¹¶åľ¨": 4270,
      "åħĪéĶĭ": 4271,
      "âĨĴ": 4272,
      "è¿Ŀæ³ķ": 4273,
      "æĤł": 4274,
      "æĹ¨": 4275,
      "è¡Ĺéģĵ": 4276,
      "å¹¶ä¸įæĺ¯": 4277,
      "å¾Īå¤ļäºº": 4278,
      "ç½ĳé¡µ": 4279,
      "åĬłå¤§": 4280,
      "å¯»æī¾": 4281,
      "çĽ¸åºĶ": 4282,
      "å±¥": 4283,
      "éĢĲæŃ¥": 4284,
      "æĨ": 4285,
      "åĪĨåŃĲ": 4286,
      "æĶ¯æĴĳ": 4287,
      "ä¸īå¹´": 4288,
      "ä¸Ĭæ¶¨": 4289,
      "Ġå¤§": 4290,
      "æŃ¤æĹ¶": 4291,
      "éĶĻè¯¯": 4292,
      "éĹ¹": 4293,
      "å®ŀåľ¨": 4294,
      "æıĲåīį": 4295,
      "èħ¹": 4296,
      "èªª": 4297,
      "çĲĨæĥ³": 4298,
      "äººå¦»": 4299,
      "æ³ª": 4300,
      "å®ļä¹ī": 4301,
      "åİŁæĿ¥": 4302,
      "éĽķ": 4303,
      "æĺİçĻ½": 4304,
      "ä¼Ĺå¤ļ": 4305,
      "bet": 4306,
      "Ġ:": 4307,
      "äºı": 4308,
      "####": 4309,
      "åĨĽéĺŁ": 4310,
      "63": 4311,
      "ord": 4312,
      "ä»°": 4313,
      "å¤©å¤©": 4314,
      "åıįæĺł": 4315,
      "å°Ĩä¼ļ": 4316,
      "èįĴ": 4317,
      "æµıè§Ī": 4318,
      "èĩĢ": 4319,
      "è¯Ħä¼°": 4320,
      "æŁ¥çľĭ": 4321,
      "åĪĨå¸ĥ": 4322,
      "ist": 4323,
      "åģļåĩº": 4324,
      "æĬ¼": 4325,
      "mm": 4326,
      "ä¸Ģæ®µ": 4327,
      "çĽĴ": 4328,
      "æ®¿": 4329,
      "åĵªéĩĮ": 4330,
      "ä¸įä½ı": 4331,
      "éĥ¡": 4332,
      "ik": 4333,
      "å¦®": 4334,
      "Ġ\\": 4335,
      "èĭıèģĶ": 4336,
      "ä¸Ģè¾¹": 4337,
      "æŃĮæīĭ": 4338,
      "åĲĦé¡¹": 4339,
      "2004": 4340,
      "ä¿¡çĶ¨": 4341,
      "å©´": 4342,
      "è¿ĽæŃ¥": 4343,
      "ä¿±ä¹Ĳ": 4344,
      "æĻ®éģį": 4345,
      "ä¸Ĭåįĩ": 4346,
      "2022": 4347,
      "97": 4348,
      "ç®Ń": 4349,
      "åĽŀå®¶": 4350,
      "æ¡Ĩ": 4351,
      "æĢ»ç»ĵ": 4352,
      "èĥĸ": 4353,
      "æŃ¤åīį": 4354,
      "æĪĪ": 4355,
      "æĦıå¤ĸ": 4356,
      "åĨ³èµĽ": 4357,
      "æĹ¶åĪ»": 4358,
      "åĨľæ°ĳ": 4359,
      "è¿ĲåĬ¨åĳĺ": 4360,
      "right": 4361,
      "åħģè®¸": 4362,
      "æĺ¯æľĢ": 4363,
      "å°ıç»Ħ": 4364,
      "ç¨į": 4365,
      "åįģåħ«": 4366,
      "åľ¾": 4367,
      "2024": 4368,
      "çĶµè§Ĩåı°": 4369,
      "åľ¨è¿ĻéĩĮ": 4370,
      "å¤§ä¼Ĺ": 4371,
      "IC": 4372,
      "éĿĴå²Ľ": 4373,
      "2001": 4374,
      "ess": 4375,
      "ä¿±ä¹Ĳéĥ¨": 4376,
      "ong": 4377,
      "çĮİ": 4378,
      "çĸ¼": 4379,
      "å¹´é¾Ħ": 4380,
      "æŀĦæĪĲ": 4381,
      "ä¸ĬéĿ¢": 4382,
      "æµģéĩı": 4383,
      "åľºæĻ¯": 4384,
      "æłĩé¢ĺ": 4385,
      "ä¼ģä¸ļçļĦ": 4386,
      "%|": 4387,
      "åĴ±": 4388,
      "ä¼¦çĲĨ": 4389,
      "çº¤": 4390,
      "è½¦åŀĭ": 4391,
      "ä¸ĬåįĪ": 4392,
      "æĶ¾å¼ĥ": 4393,
      "åĲĪæ³ķ": 4394,
      "ç»ĻæĪĳ": 4395,
      "å¤§åŃ¦çĶŁ": 4396,
      "ä¹Łæ²¡æľī": 4397,
      "æ²³åįĹ": 4398,
      "æĹº": 4399,
      "åĸĬ": 4400,
      "çĤī": 4401,
      "èĲ§": 4402,
      "åģļçĪ±": 4403,
      "åŀĥ": 4404,
      "ä¾ł": 4405,
      "å¤©æ°Ķ": 4406,
      "ç¡ķ": 4407,
      "å¥¹ä»¬": 4408,
      "åį±éĻ©": 4409,
      "æĺ¯çĶ±": 4410,
      "ell": 4411,
      "è´¤": 4412,
      "æĥħç»ª": 4413,
      "è·¯çº¿": 4414,
      "åĬłæĭ¿å¤§": 4415,
      "æĿŃå·ŀ": 4416,
      "æĸ°åįİ": 4417,
      "çĽ¸äºĴ": 4418,
      "ä¿¡åı·": 4419,
      "æĳĺ": 4420,
      "èģĮå·¥": 4421,
      "æĭ³": 4422,
      "å¤ļå¹´": 4423,
      "åľ¨äºİ": 4424,
      "å½ĵä¸Ń": 4425,
      "pe": 4426,
      "åŀĥåľ¾": 4427,
      "èĲ¥åħ»": 4428,
      "æĭĴç»Ŀ": 4429,
      "æĦıåĳ³çĿĢ": 4430,
      "èİ·åıĸ": 4431,
      "æĮ¡": 4432,
      "ç»ĵå©ļ": 4433,
      "å¹¿åľº": 4434,
      "åľ¨ä¸Ģèµ·": 4435,
      "éĩĩè®¿": 4436,
      "çļĦæĥħåĨµä¸ĭ": 4437,
      "å¢ĵ": 4438,
      "è¥¿æĸ¹": 4439,
      "ç¡®è®¤": 4440,
      "åľ°çļĦ": 4441,
      "åľ°ä¸ĭ": 4442,
      "æĪĲçĨŁ": 4443,
      "åĿĬ": 4444,
      "èģĶéĤ¦": 4445,
      "åĪĽå»º": 4446,
      "85": 4447,
      "ä¸¤ç§į": 4448,
      "åŁºå±Ĥ": 4449,
      "åİŁæľ¬": 4450,
      "é¼»": 4451,
      "çªģåĩº": 4452,
      "æŃ¦åĻ¨": 4453,
      "åŃ¦ä¼ļ": 4454,
      "å¼ºçļĦ": 4455,
      "æĪ¿åŃĲ": 4456,
      "äºĴåĬ¨": 4457,
      "éģ¥": 4458,
      "æµħ": 4459,
      "æ¬¡æĴŃæĶ¾": 4460,
      "çİ¯èĬĤ": 4461,
      "åĪļåĪļ": 4462,
      "Ġ9": 4463,
      "ç»ĳ": 4464,
      "éĥ½è¦ģ": 4465,
      "è¿ĩçļĦ": 4466,
      "å¾Īæľī": 4467,
      "æ»ĭ": 4468,
      "èĥ½éĩı": 4469,
      "åħ±æľī": 4470,
      "çĻ»è®°": 4471,
      "pg": 4472,
      "èĸª": 4473,
      "å®¶æĹı": 4474,
      "æħķ": 4475,
      "AR": 4476,
      "ä½ľä¸ļ": 4477,
      "ä¸²": 4478,
      "è´º": 4479,
      "ç½©": 4480,
      "åĲķ": 4481,
      "åįģä¹Ŀ": 4482,
      "çİ°éĩĳ": 4483,
      "çīµ": 4484,
      "åħ¨éĽĨ": 4485,
      "èĭ±æĸĩ": 4486,
      "è£Ļ": 4487,
      "éĴ»": 4488,
      "è¯ķéªĮ": 4489,
      "ç»´æĮģ": 4490,
      "çºªå½ķ": 4491,
      "æ¯ķç«Ł": 4492,
      "çĻ»å½ķ": 4493,
      "èĤ¿": 4494,
      "åĽ½çļĦ": 4495,
      "ä¹Łè®¸": 4496,
      "çī¹å¾ģ": 4497,
      "æĢ»ä¹¦è®°": 4498,
      "æľīä»Ģä¹Ī": 4499,
      "äº§æĿĥ": 4500,
      "èĤ©": 4501,
      "é¤Ĳåİħ": 4502,
      "ä¸ŃåŃ¦": 4503,
      "åĮħè£ħ": 4504,
      "ä¿®æĶ¹": 4505,
      "çĭ¬çī¹": 4506,
      "æĺŃ": 4507,
      "å¤§å¹ħ": 4508,
      "è¯´çļĦ": 4509,
      "æŃ£æĺ¯": 4510,
      "æ¯ıæ¬¡": 4511,
      "éĺ¿å°Ķ": 4512,
      "æ»¡æĦı": 4513,
      "æ¯Ķäºļ": 4514,
      "éŁ¦": 4515,
      "____": 4516,
      "å¯Ħ": 4517,
      "å¾ĭå¸Ī": 4518,
      "Ġ6": 4519,
      "å¹½": 4520,
      "æ¡Ĥ": 4521,
      "è£ħé¥°": 4522,
      "ç»´ä¿®": 4523,
      "å·¥ä½ľäººåĳĺ": 4524,
      "è½¬åŀĭ": 4525,
      "**": 4526,
      "é³": 4527,
      "åĲŁ": 4528,
      "çº¦ç¿°": 4529,
      "æľ¬ç«Ļ": 4530,
      "åı¯ä»¥åľ¨": 4531,
      "çľŁæĺ¯": 4532,
      "åį³å°Ĩ": 4533,
      "åħĭåħ°": 4534,
      "æķĻç»ĥ": 4535,
      "ie": 4536,
      "åįģä¸Ģ": 4537,
      "èµ´": 4538,
      "èĢģäºº": 4539,
      "èĬĿ": 4540,
      "ä¾Ŀæ³ķ": 4541,
      "Ġl": 4542,
      "éĽ¾": 4543,
      "é©¬åħĭ": 4544,
      "ä¸ĢæĹ¦": 4545,
      "é¼ł": 4546,
      "é£ŀè¡Į": 4547,
      "åĲĦä¸ª": 4548,
      "éĢĢä¼ĳ": 4549,
      "çļĦåŁºç¡Ģ": 4550,
      "æĹ¥èµ·": 4551,
      "ä¸Ī": 4552,
      "çľł": 4553,
      "å¿ĥéĩĮ": 4554,
      "åĩĨç¡®": 4555,
      "ĠãĢĤ": 4556,
      "åĽ½å¤ĸ": 4557,
      "èµł": 4558,
      "æĪ¿åľ°äº§": 4559,
      "èĢģåħ¬": 4560,
      "73": 4561,
      "ä¸Ĭä¼ł": 4562,
      "çİĦ": 4563,
      "è´¾": 4564,
      "åĭķ": 4565,
      "åģľè½¦": 4566,
      "ä¾£": 4567,
      "æŁ´": 4568,
      "ä¸ŃéĹ´": 4569,
      "å¤¹": 4570,
      "æ²³åĮĹ": 4571,
      "ç¼Ŀ": 4572,
      "å¥½äºĨ": 4573,
      "æħİ": 4574,
      "éĺ²æŃ¢": 4575,
      "èŃ¦æĸ¹": 4576,
      "èĲĿ": 4577,
      "è¾°": 4578,
      "Ġin": 4579,
      "çĶµåķĨ": 4580,
      "äº§åĵģçļĦ": 4581,
      "æľīæ²¡æľī": 4582,
      "åĳ¨æľŁ": 4583,
      "å¤§å°ı": 4584,
      "sh": 4585,
      "éĺ¿éĩĮ": 4586,
      "éŃħ": 4587,
      "æĢ§åĴĮ": 4588,
      "åįıè°ĥ": 4589,
      "çļĩå¸Ŀ": 4590,
      "å¤©åłĤ": 4591,
      "å±ħä½ı": 4592,
      "ity": 4593,
      "çŀ¬": 4594,
      "èŁ": 4595,
      "ä¿ĿåŃĺ": 4596,
      "å§¨": 4597,
      "è®°å¿Ĩ": 4598,
      "Ġand": 4599,
      "æĽ°": 4600,
      "ç§ĳçłĶ": 4601,
      "ue": 4602,
      "çļĦç¾İ": 4603,
      "æıĲéĨĴ": 4604,
      "æĸ¯åĿ¦": 4605,
      "æ·»åĬł": 4606,
      "åŃ¦èĢħ": 4607,
      "ä¸Ńåħ±ä¸Ńå¤®": 4608,
      "æıĲä¾ĽäºĨ": 4609,
      "åĲĮæĦı": 4610,
      "å·¥åİĤ": 4611,
      "ä¸ĭäºĨ": 4612,
      "å¼ĢåĲ¯": 4613,
      "æİĪæĿĥ": 4614,
      "è¡°": 4615,
      "ä¸Ģèĩ´": 4616,
      "æľ¬äºº": 4617,
      "èĢģæĿ¿": 4618,
      "èĢĮåľ¨": 4619,
      "éĺ³åħī": 4620,
      "åī§æĥħ": 4621,
      "å¤«å¦»": 4622,
      "æĸĳ": 4623,
      "ä¸īçº§": 4624,
      "å¤§æ¦Ĥ": 4625,
      "æľºåĬ¨": 4626,
      "åģļçļĦ": 4627,
      "å¸Ĥæ°ĳ": 4628,
      "éĺ¿æĭī": 4629,
      "éĿ¢åīį": 4630,
      "æ¶¯": 4631,
      "éĨī": 4632,
      "çĶµæ±ł": 4633,
      "ç²īä¸Ŀ": 4634,
      "å°±æľī": 4635,
      "æİ¥è¿ĳ": 4636,
      "é¸£": 4637,
      "å®ŀéĻħä¸Ĭ": 4638,
      "éĥ¨çļĦ": 4639,
      "åĽ´ç»ķ": 4640,
      "ä¸Ĭä¸ĭ": 4641,
      "Ġ7": 4642,
      "ä¸Ģåľº": 4643,
      "æĶ¶è´¹": 4644,
      "ç²¾åĵģ": 4645,
      "ä¸ĸçķĮä¸Ĭ": 4646,
      "åŃ¦æľ¯": 4647,
      "å¯¹å¤ĸ": 4648,
      "åĲ¬åĪ°": 4649,
      "çļĦæĸ¹æ³ķ": 4650,
      "åĽŀåºĶ": 4651,
      "èĥĥ": 4652,
      "æīĵåĩ»": 4653,
      "åĬ¨çĶ»": 4654,
      "ç§ĺå¯Ĩ": 4655,
      "çİ²": 4656,
      "åĬĽåº¦": 4657,
      "å¥ĳ": 4658,
      "å¤§çº¦": 4659,
      "åĩºæĿ¥çļĦ": 4660,
      "åĭ¾": 4661,
      "ç©·": 4662,
      "æ¼Ķåĩº": 4663,
      "å®¶äºº": 4664,
      "çĪµ": 4665,
      "ç¤ºèĮĥ": 4666,
      "å¤±è´¥": 4667,
      "æłĩå¿Ĺ": 4668,
      "å¾Īæĺ¯": 4669,
      "åĽŀæĿ¥": 4670,
      "æĢĿèĢĥ": 4671,
      "å®ł": 4672,
      "åŃĿ": 4673,
      "61": 4674,
      "ine": 4675,
      "......âĢĿ": 4676,
      "çº¢èī²": 4677,
      "è§£æĶ¾": 4678,
      "ty": 4679,
      "æĥ¨": 4680,
      "åľ°éĵģ": 4681,
      "æĢ»çĲĨ": 4682,
      "æī¿è®¤": 4683,
      "æ±ģ": 4684,
      "å¿ĹæĦ¿": 4685,
      "æī¶è´«": 4686,
      "åŃ¦ç§ĳ": 4687,
      "å®Įç¾İ": 4688,
      "TV": 4689,
      "jpg": 4690,
      "æģ°": 4691,
      "éĥ½èĥ½": 4692,
      "ä¸įä¹ħ": 4693,
      "åĨ¯": 4694,
      "éĶ¡": 4695,
      "è¿ĺèĥ½": 4696,
      "é¢ĸ": 4697,
      "é¡ºåĪ©": 4698,
      "èµļéĴ±": 4699,
      "èħĬ": 4700,
      "å¤§æĪĺ": 4701,
      "èŃ¦å¯Ł": 4702,
      "ä½ıæĪ¿": 4703,
      "éĤ£éĩĮ": 4704,
      "æ¨¡åŀĭ": 4705,
      "ä½Ĩåľ¨": 4706,
      "çĨĻ": 4707,
      "ç¼ºä¹ı": 4708,
      "åħĪåĲİ": 4709,
      "åĪ°è¾¾": 4710,
      "æįĲ": 4711,
      "æľīå¾Īå¤ļ": 4712,
      "å¼¯": 4713,
      "ä¹Łè¦ģ": 4714,
      "èĭį": 4715,
      "æĦŁæĥħ": 4716,
      "åĩºåıĳ": 4717,
      "æ»¤": 4718,
      "è´«åĽ°": 4719,
      "ä½ĵåĪ¶": 4720,
      "éĿĴæĺ¥": 4721,
      "éĢĤåºĶ": 4722,
      "åĳĢ": 4723,
      "æ³³": 4724,
      "ph": 4725,
      "çļĦçĶŁæ´»": 4726,
      "èĳĹåĲį": 4727,
      "ill": 4728,
      "èµ·äºĨ": 4729,
      "å¤ļäºĨ": 4730,
      "çĶ·å¥³": 4731,
      "æ£®æŀĹ": 4732,
      "è¿ĺåı¯ä»¥": 4733,
      "åľ¨å®¶": 4734,
      "é¢Ħæµĭ": 4735,
      "æĲŃéħį": 4736,
      "èī¯å¥½çļĦ": 4737,
      "åı¥è¯Ŀ": 4738,
      "å·¥èµĦ": 4739,
      "çļĦåĲĮæĹ¶": 4740,
      "å¸½": 4741,
      "èĩ³äºİ": 4742,
      "é²į": 4743,
      "ard": 4744,
      "çĵ·": 4745,
      "çł´åĿı": 4746,
      "æĶ¶åĪ°": 4747,
      "çĮľ": 4748,
      "ä¼Ĳ": 4749,
      "çĶº": 4750,
      "æµģåĩº": 4751,
      "åħ¬åĳĬ": 4752,
      "çļĦä¸ľè¥¿": 4753,
      "å°±ä¸į": 4754,
      "éĥ½å¸Ĥ": 4755,
      "æ¢¦æĥ³": 4756,
      "ook": 4757,
      "éĢıéľ²": 4758,
      "ä¸Ģä½ĵ": 4759,
      "ast": 4760,
      "æīĳ": 4761,
      "æķ´åĲĪ": 4762,
      "åıĳåĩº": 4763,
      "ä¼ª": 4764,
      "åı¯çĪ±": 4765,
      "ä¸»è§Ĵ": 4766,
      "å¦Ĥä¸ĭ": 4767,
      "ä¸ĵé¡¹": 4768,
      "ç»Ļä½ł": 4769,
      "åĪĹè¡¨": 4770,
      "å¹¼åĦ¿": 4771,
      "æĸ¤": 4772,
      "æĢ»ä½ĵ": 4773,
      "ç¥ŀç»ı": 4774,
      "å°Ŀè¯ķ": 4775,
      "æĺĤ": 4776,
      "ç¢ĳ": 4777,
      "ä½Ĳ": 4778,
      "éĢļä¿¡": 4779,
      "äºĭé¡¹": 4780,
      "ä¹ĭä¸ĭ": 4781,
      "èĮ¨": 4782,
      "çĥ¤": 4783,
      "åĬłéĢŁ": 4784,
      "è¡¨æĺİ": 4785,
      "ç«Ļåľ¨": 4786,
      "è¿ĳå¹´æĿ¥": 4787,
      "ç¦ģæŃ¢": 4788,
      "åĽºå®ļ": 4789,
      "åĲ»": 4790,
      "ä¸ľåįĹ": 4791,
      "åĪ©çİĩ": 4792,
      "æ°ĳä¼Ĺ": 4793,
      "çľĭè§ģ": 4794,
      "é¢ĦæľŁ": 4795,
      "ä¸»è¦ģæĺ¯": 4796,
      "äºĳåįĹ": 4797,
      "çļĦéĤ£": 4798,
      "ows": 4799,
      "èĽĩ": 4800,
      "åį±æľº": 4801,
      "ä¼ļçļĦ": 4802,
      "è®¡ç®Ĺæľº": 4803,
      "æŀĦå»º": 4804,
      "èĳ£äºĭéķ¿": 4805,
      "æĭ¨": 4806,
      "å±ķçİ°": 4807,
      "èµĽäºĭ": 4808,
      "ate": 4809,
      "ç§ĺä¹¦": 4810,
      "åĿĳ": 4811,
      "æĻ°": 4812,
      "çļĦäº§åĵģ": 4813,
      "æ¨±": 4814,
      "åĨĪ": 4815,
      "å¹¿æĴŃ": 4816,
      "è¾ĵåħ¥": 4817,
      "å®Ļ": 4818,
      "éĢ»": 4819,
      "éĥ½åı¯ä»¥": 4820,
      "æµģè¡Į": 4821,
      "èĢĥçĶŁ": 4822,
      "Ġ12": 4823,
      "ç²¾åĩĨ": 4824,
      "å¸¦æĿ¥çļĦ": 4825,
      "å³¡": 4826,
      "è£Ķ": 4827,
      "æķ´æĶ¹": 4828,
      "å§»": 4829,
      "è´Ńçī©": 4830,
      "åĳ¨è¾¹": 4831,
      "æĬ½æıĴ": 4832,
      "86": 4833,
      "è¤": 4834,
      "åħ¨å¸Ĥ": 4835,
      "ra": 4836,
      "è¾©": 4837,
      "åºĶå¯¹": 4838,
      "Ġv": 4839,
      "æĤ¬": 4840,
      "çĹĩçĬ¶": 4841,
      "åģļäºĨ": 4842,
      "ä¾¿æĺ¯": 4843,
      "è»": 4844,
      "å¼ºçĥĪ": 4845,
      "æľīåĪ©": 4846,
      "........": 4847,
      "å£³": 4848,
      "çĤº": 4849,
      "åįģåĽĽ": 4850,
      "çº·çº·": 4851,
      "ä¸¢": 4852,
      "æİĺ": 4853,
      "æĻĤ": 4854,
      "æĽ´ä¸º": 4855,
      "å¤ªå¹³": 4856,
      "æ»©": 4857,
      "æī¹åĩĨ": 4858,
      "åľ°çĲĨ": 4859,
      "çļĦä¸Ģç§į": 4860,
      "éĻķ": 4861,
      "æĢ»è£ģ": 4862,
      "æĻ¯åĮº": 4863,
      "éĽ¶åĶ®": 4864,
      "æ··åĲĪ": 4865,
      "å°ıå§Ĳ": 4866,
      "æķ°åŃ¦": 4867,
      "æ·±åº¦": 4868,
      "æľĢå¥½çļĦ": 4869,
      "ãģĹ": 4870,
      "æµ·åĨĽ": 4871,
      "æĪ¿å±ĭ": 4872,
      "æ©Ł": 4873,
      "ä¸ªæĢ§": 4874,
      "åĬłåĿ¡": 4875,
      "å²Ń": 4876,
      "ian": 4877,
      "å°ıåŃ¦": 4878,
      "æľµ": 4879,
      "å²³": 4880,
      "æĹ¥åŃĲ": 4881,
      "æº¶": 4882,
      "æĭĽçĶŁ": 4883,
      "æ·±åĪ»": 4884,
      "74": 4885,
      "æĵİ": 4886,
      "å»ºæĪĲ": 4887,
      "Ġ\"": 4888,
      "éĢĻ": 4889,
      "åĲįåįķ": 4890,
      "ä¿¡å¿ĥ": 4891,
      "å·¨ä¹³": 4892,
      "èĴ¸": 4893,
      "åĩłå¹´": 4894,
      "çľĭäºĨ": 4895,
      "è½¦çļĦ": 4896,
      "çŃīå¾ħ": 4897,
      "æĸ°æĹ¶ä»£": 4898,
      "ä¸įå¤Ł": 4899,
      "æĬ«": 4900,
      "å¹¶éĿŀ": 4901,
      "æĺ¯ä¸ŃåĽ½": 4902,
      "Ġ0": 4903,
      "89": 4904,
      "ä¼°è®¡": 4905,
      "CO": 4906,
      "çłĤ": 4907,
      "æĹłçº¿": 4908,
      "ä¸¤å¹´": 4909,
      "åĵĪåĵĪ": 4910,
      "ä¸§": 4911,
      "å·¨å¤§": 4912,
      "IS": 4913,
      "èĥģ": 4914,
      "å¹³è¡¡": 4915,
      "ç¨Ģ": 4916,
      "è¿ĳæľŁ": 4917,
      "åħ¬äº¤": 4918,
      "æĢ»éĥ¨": 4919,
      "å·®å¼Ĥ": 4920,
      "èħ¾è®¯": 4921,
      "ä¸Ģå¸¦": 4922,
      "çĸı": 4923,
      "æĶ¶éĽĨ": 4924,
      "çĽĳæİ§": 4925,
      "èĥľåĪ©": 4926,
      "è®¤è¯ģ": 4927,
      "æŁ¥è¯¢": 4928,
      "éĥģ": 4929,
      "èĽĭçĻ½": 4930,
      "æĻĴ": 4931,
      "è¢ĸ": 4932,
      "ç¤¾äº¤": 4933,
      "æľīæĹ¶": 4934,
      "éķ¿æ²Ļ": 4935,
      "ãĢİ": 4936,
      "å½Ń": 4937,
      "è¿Ļä½į": 4938,
      "ee": 4939,
      "ä¸Ģæĺ¯": 4940,
      "æĢĿç»´": 4941,
      "APP": 4942,
      "è¥¿å®ī": 4943,
      "èĳĽ": 4944,
      "2023": 4945,
      "æľ´": 4946,
      "ç«ĭæ³ķ": 4947,
      "è¶³å¤Ł": 4948,
      "æĸ°åĬłåĿ¡": 4949,
      "åĨ³çŃĸ": 4950,
      "æĹ©æľŁ": 4951,
      "è®°å¾Ĺ": 4952,
      "çĸ¯çĭĤ": 4953,
      "æ³Ħ": 4954,
      "æĴĴ": 4955,
      "åĪ¤æĸŃ": 4956,
      "ç´¯è®¡": 4957,
      "åĳ¨å¹´": 4958,
      "åĽ¾ä¹¦": 4959,
      "è£ħç½®": 4960,
      "æĸ°å¢ŀ": 4961,
      "æĴŃåĩº": 4962,
      "æ·±åĮĸ": 4963,
      "åıĤæķ°": 4964,
      "âĶĢ": 4965,
      "çŁĽ": 4966,
      "æ¥Ń": 4967,
      "ev": 4968,
      "å°Ĩåħ¶": 4969,
      "ä¸īå¤§": 4970,
      "çļĦåİŁåĽł": 4971,
      "åºŀ": 4972,
      "æĤ¦": 4973,
      "æĪĲå°±": 4974,
      "è®²è¯Ŀ": 4975,
      "éĺĶ": 4976,
      "ä¸»ä½ĵ": 4977,
      "é¥¼": 4978,
      "87": 4979,
      "çģĮ": 4980,
      "çĳŁ": 4981,
      "åĴ±ä»¬": 4982,
      "çĻ¾åĪĨ": 4983,
      "æµ·æ´ĭ": 4984,
      "ãģĦ": 4985,
      "ç¦ıå»º": 4986,
      "ç§įåŃĲ": 4987,
      "æĥ³æ³ķ": 4988,
      "éĽĨä½ĵ": 4989,
      "æ¨¡çī¹": 4990,
      "å®ĺåĳĺ": 4991,
      "é¢Ħéĺ²": 4992,
      "ç®Ģç§°": 4993,
      "æī¹è¯Ħ": 4994,
      "ç½ĳçº¢": 4995,
      "è·¯ä¸Ĭ": 4996,
      "æ°Ķè´¨": 4997,
      "åĭĥ": 4998,
      "éĶĢéĩı": 4999,
      "çĽĳæµĭ": 5000,
      "éĩĩè´Ń": 5001,
      "åľ°åĽ¾": 5002,
      "éĩĮæĸ¯": 5003,
      "cc": 5004,
      "é¥±": 5005,
      "ng": 5006,
      "æ¤ħ": 5007,
      "åīª": 5008,
      "åŁºåĽł": 5009,
      "æīŃ": 5010,
      "æĹ¥åīį": 5011,
      "ä¹Łå¾Ī": 5012,
      "åıĸæ¶Ī": 5013,
      "åºĬä¸Ĭ": 5014,
      "indows": 5015,
      "NA": 5016,
      "II": 5017,
      "ä¹Įåħĭåħ°": 5018,
      "å®¤åĨħ": 5019,
      "ä¸Ńåįİæ°ĳåĽ½": 5020,
      "æŁ¯": 5021,
      "å¹¿è¥¿": 5022,
      "åľ¨ç·ļ": 5023,
      "æ¡Īä¾ĭ": 5024,
      "æıĲç¤º": 5025,
      "ãĢı": 5026,
      "è´¢åĬ¡": 5027,
      "æ¡¶": 5028,
      "æĬ¥å¯¼": 5029,
      "èĤĿ": 5030,
      "ä»ªå¼ı": 5031,
      "æĦĽ": 5032,
      "å§ľ": 5033,
      "é¹¿": 5034,
      "çĲª": 5035,
      "è¯´è¯Ŀ": 5036,
      "æĥħåĨµä¸ĭ": 5037,
      "éĢļè®¯": 5038,
      "å½ĵå¤©": 5039,
      "æĶ¶è´Ń": 5040,
      "çļĦæķħäºĭ": 5041,
      "ä¼¤å®³": 5042,
      "æĬĳ": 5043,
      "éħ±": 5044,
      "é¢ĳéģĵ": 5045,
      "èħĶ": 5046,
      "æ¸ħæ´ģ": 5047,
      "æ½ĺ": 5048,
      "æ¹ĸåĮĹ": 5049,
      "æĭīåħĭ": 5050,
      "ai": 5051,
      "ä¸ļç»©": 5052,
      "è¶ĬåįĹ": 5053,
      "ä¿ĿçķĻ": 5054,
      "å°ĳæķ°": 5055,
      "åİķ": 5056,
      "é¢ĨåħĪ": 5057,
      "åĭŁ": 5058,
      "é¸¿": 5059,
      "åįģäºĶ": 5060,
      "é¹ı": 5061,
      "St": 5062,
      "åı¹": 5063,
      "å¹´åºķ": 5064,
      "å®ĩå®Ļ": 5065,
      "å®ļåĪ¶": 5066,
      "é©°": 5067,
      "åı¯èĥ½æĺ¯": 5068,
      "åľ¨è¿Ļä¸ª": 5069,
      "åĽ½çİĭ": 5070,
      "ä½ľåĩº": 5071,
      "æľ¬æĿ¥": 5072,
      "èľĤ": 5073,
      "ä½ľå®¶": 5074,
      "è¿Ļæ¬¾": 5075,
      "æŁĲäºĽ": 5076,
      "ĠCh": 5077,
      "è¢ģ": 5078,
      "å¤ĸéĥ¨": 5079,
      "æĤŁ": 5080,
      "èį¯çī©": 5081,
      "éĦ": 5082,
      "æł·åŃĲ": 5083,
      "æīįæĺ¯": 5084,
      "ä¸įæĥ³": 5085,
      "ä»£çłģ": 5086,
      "çļĦä½ľçĶ¨": 5087,
      "åģļæ³ķ": 5088,
      "çļĦæ°´": 5089,
      "éĢļéģĵ": 5090,
      "æ¶Į": 5091,
      "ç»ĨèĬĤ": 5092,
      "çĻ¼": 5093,
      "çī¹æľĹ": 5094,
      "åŀĤ": 5095,
      "çĨŁå¥³": 5096,
      "åĮĻ": 5097,
      "ç³ķ": 5098,
      "åľ¨ä¸Ģ": 5099,
      "å½ĵå¹´": 5100,
      "è®¸åı¯": 5101,
      "èĻ¾": 5102,
      "Ġ11": 5103,
      "å·¡è§Ĩ": 5104,
      "ll": 5105,
      "çĶ¨æĿ¥": 5106,
      "åĩºå¸Ń": 5107,
      "åĵªä¸ª": 5108,
      "æľīåĵªäºĽ": 5109,
      "éĥ½æ²¡æľī": 5110,
      "è¿ĺä¼ļ": 5111,
      "åĪ«çļĦ": 5112,
      "é¢Ħç®Ĺ": 5113,
      "è¥¿éĥ¨": 5114,
      "å°¼æĸ¯": 5115,
      "çº¿çļĦ": 5116,
      "éĻ¢éķ¿": 5117,
      "åı¸æ³ķ": 5118,
      "åĩłå¤©": 5119,
      "å¿ĥä¸Ń": 5120,
      "ont": 5121,
      "ä½¿çĶ¨çļĦ": 5122,
      "çĽ¸åħ³çļĦ": 5123,
      "åİĤå®¶": 5124,
      "è¯´æĺ¯": 5125,
      "æ¶Ľ": 5126,
      "æĢ»ç»ıçĲĨ": 5127,
      "èī¯å¥½": 5128,
      "åľĸçīĩ": 5129,
      "å±ģèĤ¡": 5130,
      "å¥³å£«": 5131,
      "åı¸æľº": 5132,
      "ç»µ": 5133,
      "ä¼ĳæģ¯": 5134,
      "âĢ¢": 5135,
      "æĸ°åŀĭ": 5136,
      "å¼Ģå¿ĥ": 5137,
      "çłĸ": 5138,
      "éĵĿ": 5139,
      "é©¬ä¸Ĭ": 5140,
      "Ġå°ı": 5141,
      "å¸¸å¸¸": 5142,
      "ç»Łæ²»": 5143,
      "æľīå¤ļ": 5144,
      "æ¸ħæĻ°": 5145,
      "è¡¥åħħ": 5146,
      "äºĮæĺ¯": 5147,
      "ä¹Łèĥ½": 5148,
      "æĿĤå¿Ĺ": 5149,
      "åħ¨æĸĩ": 5150,
      "åıī": 5151,
      "çĺ¦": 5152,
      "ä¸°å¯ĮçļĦ": 5153,
      "æĸ°çĸĨ": 5154,
      "erv": 5155,
      "æŀĿ": 5156,
      "å½»åºķ": 5157,
      "åħ¨æĸ°": 5158,
      "ä¾Ĩ": 5159,
      "çľĭèµ·æĿ¥": 5160,
      "æľĢä½İ": 5161,
      "èµ°åĲĳ": 5162,
      "ç§»æ°ĳ": 5163,
      "æ¬¡æķ°": 5164,
      "èĢģå¹´": 5165,
      "æī¿è¯º": 5166,
      "æĺ¯æĮĩ": 5167,
      "å¯ĵ": 5168,
      "é£ĺ": 5169,
      "åĨ»": 5170,
      "è½¬ç§»": 5171,
      "æ°§åĮĸ": 5172,
      "åħ¨ä½ĵ": 5173,
      "éļıæĹ¶": 5174,
      "==": 5175,
      "å¥¥è¿Ĳ": 5176,
      "è¿ħéĽ·": 5177,
      "æŃ£æĸĩ": 5178,
      "è®©ä»ĸ": 5179,
      "æķ´çĲĨ": 5180,
      "å©ļå§»": 5181,
      "åĳ¨åĽ´": 5182,
      "150": 5183,
      "èµģ": 5184,
      "èī°": 5185,
      "æĪĳå°±": 5186,
      "æµĨ": 5187,
      "æĮ¤": 5188,
      "æľĢå¤ļ": 5189,
      "çĻ½èī²": 5190,
      "åħĶ": 5191,
      "ç³Ĭ": 5192,
      "ec": 5193,
      "æĿĥçĽĬ": 5194,
      "çİ°åľ¨çļĦ": 5195,
      "æ³ķè§Ħ": 5196,
      "æµģåĬ¨": 5197,
      "æĺŁç³»": 5198,
      "é»ĳèī²": 5199,
      "é¡µéĿ¢": 5200,
      "qu": 5201,
      "åĽŀå¤į": 5202,
      "å½°": 5203,
      "Ġh": 5204,
      "èŀº": 5205,
      "åĤ¬": 5206,
      "éĩĳé¢Ŀ": 5207,
      "çº¿è·¯": 5208,
      "æĸľ": 5209,
      "æľ¬åľ°": 5210,
      "çħ®": 5211,
      "æł¡éķ¿": 5212,
      "æľĥ": 5213,
      "åłª": 5214,
      "é«ĺæ½®": 5215,
      "åĪĽæĦı": 5216,
      "çłĶç©¶æīĢ": 5217,
      "åĺĽ": 5218,
      "çĨŁæĤī": 5219,
      "âĪ": 5220,
      "ç³»ç»ŁçļĦ": 5221,
      "éļ¶": 5222,
      "çĥĤ": 5223,
      "è®ºæĸĩ": 5224,
      "ä¸Ĭåİ»": 5225,
      "çĥŃæĥħ": 5226,
      "åľ°åĮºçļĦ": 5227,
      "ib": 5228,
      "å°±ç®Ĺ": 5229,
      "éĹ®é¢ĺçļĦ": 5230,
      "æĢ¨": 5231,
      "åıĳè¨Ģ": 5232,
      "éŁµ": 5233,
      "èĢĥæł¸": 5234,
      "ST": 5235,
      "2025": 5236,
      "åłµ": 5237,
      "çŃĶæ¡Ī": 5238,
      "åĴ¬": 5239,
      "å¤ĸæ±ĩ": 5240,
      ":ãĢĮ": 5241,
      "å¤ķ": 5242,
      "æĪĳåľ¨": 5243,
      "é«ĺç«¯": 5244,
      "120": 5245,
      "åıĻ": 5246,
      "å®īå¾½": 5247,
      "è¯Ī": 5248,
      "çŃīçº§": 5249,
      "å½¢åĬ¿": 5250,
      "çĶ·æĢ§": 5251,
      "åľ°éĿ¢": 5252,
      "èģª": 5253,
      "AI": 5254,
      "åĢ¡": 5255,
      "æŃĮæĽ²": 5256,
      "ä¼¦æķ¦": 5257,
      "çī¹æľĹæĻ®": 5258,
      "åĲŀ": 5259,
      "éģĵå¾·": 5260,
      "ä½¿åĳ½": 5261,
      "æĮīæĳ©": 5262,
      "èĪŀåı°": 5263,
      "ix": 5264,
      "çļĦæīĭ": 5265,
      "çļĦè¦ģæ±Ĥ": 5266,
      "ç§Łèµģ": 5267,
      "ãĢĤãĢĬ": 5268,
      "å¦ĥ": 5269,
      "é«ĺæķĪ": 5270,
      "æĽ´å¥½çļĦ": 5271,
      "æĬĬæı¡": 5272,
      "å¼ķæĵİ": 5273,
      "600": 5274,
      "åħ¨çľģ": 5275,
      "æĺ¨å¤©": 5276,
      "ç²¤": 5277,
      "åīįçļĦ": 5278,
      "è°Ĳ": 5279,
      "éĩĬæĶ¾": 5280,
      ");": 5281,
      "åĩ½": 5282,
      "çĻ¾å§ĵ": 5283,
      "çļĦæķ°æį®": 5284,
      "èµ¢å¾Ĺ": 5285,
      "å®¶åħ·": 5286,
      "æ¼Ĩ": 5287,
      "å¾ªçİ¯": 5288,
      "çŁ³æ²¹": 5289,
      "è¾¨": 5290,
      "å°ĨåĨĽ": 5291,
      "èģĶåĲĪåĽ½": 5292,
      "çŀ¬éĹ´": 5293,
      "æĸĩçī©": 5294,
      "ä¸ŃåĽ½åħ±äº§åħļ": 5295,
      "å¨ģèĥģ": 5296,
      "éģĹåĿĢ": 5297,
      "å²Ĺä½į": 5298,
      "æĬļ": 5299,
      "æģ¨": 5300,
      "è¿ĶåĽŀ": 5301,
      "çīĪæĿĥæīĢæľī": 5302,
      "åĮ»èį¯": 5303,
      "ä½İäºİ": 5304,
      "æľĢæĹ©": 5305,
      "éĶĲ": 5306,
      "é¥®é£Ł": 5307,
      "åļ": 5308,
      "æĪĳè¦ģ": 5309,
      "åįĥä¸ĩ": 5310,
      "åħ¬ä¸»": 5311,
      "Ph": 5312,
      "ç»ĻäºĨ": 5313,
      "çĶµè§Ĩåī§": 5314,
      "é«Ķ": 5315,
      "æĬķæ³¨": 5316,
      "éĿŀæ´²": 5317,
      "ç´§å¼ł": 5318,
      "åı¯éĿł": 5319,
      "ãĤ¹": 5320,
      "å·´é»İ": 5321,
      "çĽĨ": 5322,
      "åŁİåĮº": 5323,
      "èµ°äºĨ": 5324,
      "net": 5325,
      "ãĢĪ": 5326,
      "çĭĲ": 5327,
      "å®¡æŁ¥": 5328,
      "Ġå¹´": 5329,
      "åı¤ä»£": 5330,
      "èĤ¡ä¸ľ": 5331,
      "é½¿": 5332,
      "åį§": 5333,
      "é¢ĩ": 5334,
      "éķ¿æ±Ł": 5335,
      "æ¯ıæĹ¥": 5336,
      "ãĢī": 5337,
      "åĲĵ": 5338,
      "åħ¬çĽĬ": 5339,
      "ok": 5340,
      "åĩºåı°": 5341,
      "åı¯è§ģ": 5342,
      "è®©æĪĳä»¬": 5343,
      "æĪĲçļĦ": 5344,
      "83": 5345,
      "å®´": 5346,
      "äºīè®®": 5347,
      "åľºæīĢ": 5348,
      "è´Ŀå°Ķ": 5349,
      "âĺħ": 5350,
      "æ¬º": 5351,
      "èĬ¯çīĩ": 5352,
      "è§£åĨ³æĸ¹æ¡Ī": 5353,
      "åĳĨ": 5354,
      "æľ¬ç§ĳ": 5355,
      "èĢģèĻİ": 5356,
      "æĥħäºº": 5357,
      "ç©ºè°ĥ": 5358,
      "åĤ²": 5359,
      "ry": 5360,
      "åĽĬ": 5361,
      "Ġa": 5362,
      "æĶ¶èĹı": 5363,
      "èī²å½©": 5364,
      "å·¥åķĨ": 5365,
      "ä¸»æ¼Ķ": 5366,
      "çĬ¬": 5367,
      "å®¡æł¸": 5368,
      "è©¹": 5369,
      "æĹ¥åľ¨": 5370,
      "éĢłåŀĭ": 5371,
      "è´¢å¯Į": 5372,
      "ç¥Ń": 5373,
      "æ£ī": 5374,
      "è¾ĥä¸º": 5375,
      "è´¢äº§": 5376,
      "æ¬ł": 5377,
      "å¤ĸçļĦ": 5378,
      "ä¸Ģå¼ł": 5379,
      "ç¯®çĲĥ": 5380,
      "æľįåĬ¡åĻ¨": 5381,
      "åĤħ": 5382,
      "åĪĩå®ŀ": 5383,
      "çŁĽçĽ¾": 5384,
      "Ġè¿ĳ": 5385,
      "éĢīæīĭ": 5386,
      "æª": 5387,
      "åĩºçİ°äºĨ": 5388,
      "ä½ľæĪĺ": 5389,
      "èķ¾": 5390,
      "å¸Ĥå§Ķ": 5391,
      "ç¦»å¿ĥ": 5392,
      "ä¸Ģå®ļçļĦ": 5393,
      "name": 5394,
      "åĳµ": 5395,
      "çĲĨçĶ±": 5396,
      "æıĲäº¤": 5397,
      "ç´łè´¨": 5398,
      "ä¸įåľ¨": 5399,
      "ãĥ«": 5400,
      "é»ĳä¸Ŀ": 5401,
      "å¯Ĩåº¦": 5402,
      "æĹ¥èĩ³": 5403,
      "ä¾¿åĪ©": 5404,
      "åħ³éĶ®è¯į": 5405,
      "ae": 5406,
      "çļĦä¸Ń": 5407,
      "åĳ¼åĲ¸": 5408,
      "éĢıæĺİ": 5409,
      "----------------": 5410,
      "åĮºåĪ«": 5411,
      "ä¾¿å®ľ": 5412,
      "è¢«ç§°ä¸º": 5413,
      "ä¸ĵåĪ©": 5414,
      "åĲīæŀĹ": 5415,
      "åĨ²çªģ": 5416,
      "çĶµåĬĽ": 5417,
      "å¤§èµĽ": 5418,
      "æĹłéĻĲ": 5419,
      "æ¼ĶåĶ±": 5420,
      "åĲ¦åĪĻ": 5421,
      "è¯ĨåĪ«": 5422,
      "èıĬ": 5423,
      "å¤§æķ°æį®": 5424,
      "å¹³æĸ¹ç±³": 5425,
      "è¥¿èĹı": 5426,
      "è°ĥçłĶ": 5427,
      "æ¯ıä¸Ģ": 5428,
      "1999": 5429,
      "ãĢį,": 5430,
      "|ãĢĬ": 5431,
      "åĲĮä¸Ģ": 5432,
      "ä¸ĵä¸ļçļĦ": 5433,
      "æ°ĶåĢĻ": 5434,
      "å¥ĸåĬ±": 5435,
      "çĪ¬": 5436,
      "CC": 5437,
      "çķªåı·": 5438,
      "çĶŁåŃĺ": 5439,
      "é©±åĬ¨": 5440,
      "çļĦä¿¡æģ¯": 5441,
      "éĢ¢": 5442,
      "æĢ§çĪ±": 5443,
      "æ¯ıä¸Ģä¸ª": 5444,
      "%;": 5445,
      "é¡¾å®¢": 5446,
      "æ²Īéĺ³": 5447,
      "èĮĤ": 5448,
      "å¼Ģå¥ĸ": 5449,
      "è¯´æ³ķ": 5450,
      "å½¢æĢģ": 5451,
      "çİ©æ³ķ": 5452,
      "åħĳ": 5453,
      "åĩ¶": 5454,
      "èĢĮä¸įæĺ¯": 5455,
      "ãĢĭãĢĬ": 5456,
      "æĺ¯æľī": 5457,
      "è¥¿åįĹ": 5458,
      "æĪĳåĴĮ": 5459,
      "ä¹Łæ²¡": 5460,
      "çļĦåĨħå®¹": 5461,
      "å¤§å¸Ī": 5462,
      "æĬ¬": 5463,
      "æīĭç»Ń": 5464,
      "84": 5465,
      "é«ĺçŃī": 5466,
      "ä¹Łå°±": 5467,
      "è¿Ľåİ»": 5468,
      "çļĦä¸ĢäºĽ": 5469,
      "ĠIn": 5470,
      "å®Įæķ´çīĪ": 5471,
      "çļĦæľĭåıĭ": 5472,
      "ä¸įå¦Ĥ": 5473,
      "ç¥ŀç§ĺ": 5474,
      "åĲĮäºĭ": 5475,
      "æ³¨éĩį": 5476,
      "ä¸Ńå±±": 5477,
      "å¼ĺ": 5478,
      "è§Ĩä¸º": 5479,
      "åħ¬æ°ĳ": 5480,
      "èĢĥå¯Ł": 5481,
      "èĩ´åĬĽ": 5482,
      "ä¹±ä¼¦": 5483,
      "ä»¶äºĭ": 5484,
      "è¿ĺæ²¡æľī": 5485,
      "è½¬åıĺ": 5486,
      "Ġ=": 5487,
      "åĩºçİ°åľ¨": 5488,
      "æ¹ĺ": 5489,
      "çŃ¾ç½²": 5490,
      "éĢ¸": 5491,
      "è¡Ķ": 5492,
      "ä¾¦": 5493,
      "å¼¥": 5494,
      "æĸ¹çļĦ": 5495,
      "é¦ĸéĥ½": 5496,
      "åĿļåĨ³": 5497,
      "åĨ²åĩ»": 5498,
      "äººå·¥æĻºèĥ½": 5499,
      "æĺ¯æĪĳ": 5500,
      "ç¬¬åħŃ": 5501,
      "åħ¸åŀĭ": 5502,
      "åĶĩ": 5503,
      "åľ¨ç¾İåĽ½": 5504,
      "åıł": 5505,
      "ä¸ĵé¢ĺ": 5506,
      "åį«æĺŁ": 5507,
      "xt": 5508,
      "96": 5509,
      "ĠY": 5510,
      "åį°è±¡": 5511,
      "è®¾æľī": 5512,
      "å·¨å¤§çļĦ": 5513,
      "é¹°": 5514,
      "å±Ģéķ¿": 5515,
      "çºªå¾ĭ": 5516,
      "ç¬¬äºĮæ¬¡": 5517,
      "æ¶Īéĺ²": 5518,
      "åĿĲåľ¨": 5519,
      "çĪĨçĤ¸": 5520,
      "ç²ĺ": 5521,
      "èµĮåľº": 5522,
      "åķ¥": 5523,
      "äºĨä¸ĢäºĽ": 5524,
      "åŃ¦åĳĺ": 5525,
      "ä¾ĿæĹ§": 5526,
      "Ġ&": 5527,
      "èĤ¡æĿĥ": 5528,
      "åįµ": 5529,
      "æĬĸ": 5530,
      "åŁĭ": 5531,
      "å¾Īå¤§çļĦ": 5532,
      "æĢ§è´¨": 5533,
      "ight": 5534,
      "è°¨": 5535,
      "éĵĥ": 5536,
      "é¦Ī": 5537,
      "å±Ĥæ¬¡": 5538,
      "çļĦæĦŁè§ī": 5539,
      "çº²": 5540,
      "éľŀ": 5541,
      "éĿŀæ³ķ": 5542,
      "çĻ¾ä¸ĩ": 5543,
      "ç¾İé£Ł": 5544,
      "ä¹īåĬ¡": 5545,
      "çºªå§Ķ": 5546,
      "çĶ»éĿ¢": 5547,
      "æľĢåĪĿ": 5548,
      "åįģåħŃ": 5549,
      "å°ºå¯¸": 5550,
      "äººç¾¤": 5551,
      "åĽ½éĺ²": 5552,
      "åĽŀå¿Ĩ": 5553,
      "æĬ¤å£«": 5554,
      "Ġä¸Ģ": 5555,
      "ãģª": 5556,
      "è´¦æĪ·": 5557,
      "æĹ¶æĹ¶": 5558,
      "åĳ³éģĵ": 5559,
      "ç¢§": 5560,
      "æ¿ĢçĥĪ": 5561,
      "åĴª": 5562,
      "çŃīæĸ¹éĿ¢": 5563,
      "è§Ĩè§ī": 5564,
      "è¿Ļå°±æĺ¯": 5565,
      "åĩºä¸Ģ": 5566,
      "åĽ½å®¶çļĦ": 5567,
      "ear": 5568,
      "å±Ī": 5569,
      "çİĩä¸º": 5570,
      "æĽĿåħī": 5571,
      "éĺĢ": 5572,
      "å¤§åıĳ": 5573,
      "ä¸ºä½ķ": 5574,
      "çªĿ": 5575,
      "æľºåĬ¨è½¦": 5576,
      "çļĩåĨł": 5577,
      "è°¢è°¢": 5578,
      "è¿ĩäºĨ": 5579,
      "åŁİéķĩ": 5580,
      "éĿ¢åĲĳ": 5581,
      "é¤Ĳé¥®": 5582,
      "ç°": 5583,
      "æĹ¥çļĦ": 5584,
      "ä»ĸäºº": 5585,
      "åįİä¸º": 5586,
      "èµ°åĬ¿": 5587,
      "çĥŃéĹ¨": 5588,
      "In": 5589,
      "ä½łä¼ļ": 5590,
      "ey": 5591,
      "éģĵåħ·": 5592,
      "æ°´æŀľ": 5593,
      "ä¸´æĹ¶": 5594,
      "ort": 5595,
      "ä¸»ç®¡": 5596,
      "åıĹä¼¤": 5597,
      "åı¦ä¸Ģä¸ª": 5598,
      "éĽ»å½±": 5599,
      "æľºåĻ¨äºº": 5600,
      "æĿı": 5601,
      "æ¸´": 5602,
      "äºĭå®ŀä¸Ĭ": 5603,
      "èĪĮ": 5604,
      "æĹ¥çĶµ": 5605,
      "ç¿»è¯ĳ": 5606,
      "äººåĬĽ": 5607,
      "åŁºçĿ£": 5608,
      "æī§æ³ķ": 5609,
      "èĪĴéĢĤ": 5610,
      "çŃ¾è®¢": 5611,
      "åĵ²åŃ¦": 5612,
      "åĽŀæĶ¶": 5613,
      "æ¾³å¤§åĪ©": 5614,
      "å¯¹æ¯Ķ": 5615,
      "åĳ»": 5616,
      "èĳ¬": 5617,
      "è¯·éĹ®": 5618,
      "èĤºçĤİ": 5619,
      "åħ¬å¹³": 5620,
      "æ¯ħ": 5621,
      "æ¶Īå¤±": 5622,
      "æĬĽ": 5623,
      "å¸¦é¢Ĩ": 5624,
      "åĽŃåĮº": 5625,
      "å®ªæ³ķ": 5626,
      "æ¸Ķ": 5627,
      "å¤±åİ»": 5628,
      "æ·ĭ": 5629,
      "ä¸įå¤ļ": 5630,
      "ä¸įèµ·": 5631,
      "é¢ĨåŁŁçļĦ": 5632,
      "ä¸Ģä»£": 5633,
      "åĪĨéħį": 5634,
      "æĢİä¹Īæł·": 5635,
      "å»Ĭ": 5636,
      "æīĵç®Ĺ": 5637,
      "é©¬æĿ¥": 5638,
      "æĿĥåĬĽ": 5639,
      "åįıåĬ©": 5640,
      ")(": 5641,
      "æľĪçļĦ": 5642,
      "è¾ĥå¤§": 5643,
      "å¦¹å¦¹": 5644,
      "ä»¥ä¸ĬçļĦ": 5645,
      "å°ıåĮº": 5646,
      "çĭ®": 5647,
      "æľīæľº": 5648,
      "èĤļ": 5649,
      "Ġ17": 5650,
      "è¿Ŀåıį": 5651,
      "ä¸ĺ": 5652,
      "çĶŁéķ¿": 5653,
      "çĹķ": 5654,
      "åĲ¾": 5655,
      "æľ¬åľŁ": 5656,
      "82": 5657,
      "çŁ©": 5658,
      "æĶ¹è¿Ľ": 5659,
      "The": 5660,
      "ä¸įæķ¢": 5661,
      "å¯¹è¯Ŀ": 5662,
      "æĭīæĸ¯": 5663,
      "è´¢ç»ı": 5664,
      "çľŁæŃ£çļĦ": 5665,
      "iz": 5666,
      "éĳ": 5667,
      "é«ĺè´¨éĩı": 5668,
      "åķĨå®¶": 5669,
      "é¼İ": 5670,
      "ER": 5671,
      "èīĩ": 5672,
      "è¯ķåĽ¾": 5673,
      "åľ°ä¸Ĭ": 5674,
      "å¼ĢæĪ·": 5675,
      "éĤ£æł·": 5676,
      "ç®Ģä»ĭ": 5677,
      "1998": 5678,
      "æľīä¸ª": 5679,
      "å¤ļåħĥ": 5680,
      "è¾¾æĪĲ": 5681,
      "ç¾¤ä½ĵ": 5682,
      "æ¾³å¤§åĪ©äºļ": 5683,
      "IN": 5684,
      "ä¸ĭè·Į": 5685,
      "çĶŁæ´»ä¸Ń": 5686,
      "åıĳå°Ħ": 5687,
      "éħįå¥Ĺ": 5688,
      "ath": 5689,
      "åĳ»åĲŁ": 5690,
      "è¡¨æĥħ": 5691,
      "åĲĦèĩª": 5692,
      "è§Ħå¾ĭ": 5693,
      "è°ĥæķĻ": 5694,
      "éªĤ": 5695,
      "éĻĮ": 5696,
      "å°ıå¿ĥ": 5697,
      "è®¤åı¯": 5698,
      "å¤ªå¤ļ": 5699,
      "æ§½": 5700,
      "é«ĺèĢĥ": 5701,
      "æİ¥çĿĢ": 5702,
      "å¹´è½»äºº": 5703,
      "ç§įæ¤į": 5704,
      "åĪłéĻ¤": 5705,
      "å®ŀä½ĵ": 5706,
      "æķĪåºĶ": 5707,
      "è¾½å®ģ": 5708,
      "ä¸īè§Ĵ": 5709,
      "æļĳ": 5710,
      "äº¤æį¢": 5711,
      "åĵ¥åĵ¥": 5712,
      "ä»ĩ": 5713,
      "å¿Į": 5714,
      "èĬĴ": 5715,
      "åĸĶ": 5716,
      "ä¸ĵè¾ĳ": 5717,
      "æī®æ¼Ķ": 5718,
      "åĲĪéĢĤ": 5719,
      "å¼ºå¤§": 5720,
      "èĻĲ": 5721,
      "å¼ķè¿Ľ": 5722,
      "PS": 5723,
      "å°Ĩäºİ": 5724,
      "åħ³å¿ĥ": 5725,
      "èĴĭ": 5726,
      "é«ĺè¾¾": 5727,
      "æĪĲå¹´": 5728,
      "è£ķ": 5729,
      "ç±»çļĦ": 5730,
      "åĲ¸æĶ¶": 5731,
      "å¸ĮèħĬ": 5732,
      "ä¸»åĬŀ": 5733,
      "æĸ°åĨł": 5734,
      "åĲĪæł¼": 5735,
      "ãĤĬ": 5736,
      "è®®åĳĺ": 5737,
      "Ġg": 5738,
      "è¿ĺæ²¡": 5739,
      "ä¾Ľç»Ļ": 5740,
      "our": 5741,
      "å¹³æĹ¶": 5742,
      "åĽłèĢĮ": 5743,
      "åĴĮåħ¶ä»ĸ": 5744,
      "éª¤": 5745,
      "å°ºåº¦": 5746,
      "åĳ½è¿Ĳ": 5747,
      "ä¼ĬæľĹ": 5748,
      "æ°ĳéĹ´": 5749,
      "å®¢æĪ·ç«¯": 5750,
      "æľįè£ħ": 5751,
      "çĶŁæĦı": 5752,
      "å¾ĹåĪ°äºĨ": 5753,
      "ç¼Ĩ": 5754,
      "é«ĺéĽĦ": 5755,
      "å¯Ĥ": 5756,
      "è¥¿åĮĹ": 5757,
      "æĿ¡ä¾ĭ": 5758,
      "æĿ¿åĿĹ": 5759,
      "æīĭæľºçīĪ": 5760,
      "æĺ¯å¯¹": 5761,
      "åħ¨åĬĽ": 5762,
      "åŀ«": 5763,
      "ml": 5764,
      "å¼ıçļĦ": 5765,
      "éĢĤå½ĵ": 5766,
      "æĹ©é¤Ĳ": 5767,
      "ä¸ºæĤ¨": 5768,
      "ss": 5769,
      "å¥½å¥½": 5770,
      "æ±Łè¥¿": 5771,
      "ãĤ¤": 5772,
      "åĬ«": 5773,
      "åĽ½æľī": 5774,
      "åĪĹè½¦": 5775,
      "åŃĺåĤ¨": 5776,
      "ä¸Ģçº§": 5777,
      "åĩºç§Ł": 5778,
      "åĽŀå½Ĵ": 5779,
      "èį¯åĵģ": 5780,
      "å±ıå¹ķ": 5781,
      "çļĦåİĨåı²": 5782,
      "è¿Ĳè½¬": 5783,
      "æĭĵå±ķ": 5784,
      "ant": 5785,
      "åĿļå®ļ": 5786,
      "å°Ĭéĩį": 5787,
      "éľľ": 5788,
      "ack": 5789,
      "æł¼åħ°": 5790,
      "æĺ¥èĬĤ": 5791,
      "ãĢĳãĢĲ": 5792,
      "èĦ±è´«": 5793,
      "æ³°åĽ½": 5794,
      "Ġè½¨éģĵ": 5795,
      "è¯¦æĥħ": 5796,
      "å¯¨": 5797,
      "ç½¢": 5798,
      "çŃīäºº": 5799,
      "éĢ»è¾ĳ": 5800,
      "ä½ıå®ħ": 5801,
      "æĹ©ä¸Ĭ": 5802,
      "ä¼ĳéĹ²": 5803,
      "æĸ°åįİç¤¾": 5804,
      "çľģå§Ķ": 5805,
      "æ¯ĶåĪĨ": 5806,
      "æĶ¿åįı": 5807,
      "è½¬åĮĸ": 5808,
      "å·¥äºº": 5809,
      "å·´è¥¿": 5810,
      "ç¿Ķ": 5811,
      "æĤĦ": 5812,
      "è¯·æ±Ĥ": 5813,
      "Ð°": 5814,
      "æ±ª": 5815,
      ":ãĢĬ": 5816,
      "MA": 5817,
      "å¹¶æľª": 5818,
      "end": 5819,
      "US": 5820,
      "çļĦå¤ĸ": 5821,
      "é¢Ī": 5822,
      "éĢĤçĶ¨": 5823,
      "çļĦæĥħ": 5824,
      "äººå®¶": 5825,
      "å¼ĢäºĨ": 5826,
      "è¿ĽæĶ»": 5827,
      "æĺ¾å¾Ĺ": 5828,
      "éķ¿è½´": 5829,
      "éĤ£ç§į": 5830,
      "çĺ¤": 5831,
      "«çĹ": 5832,
      "çĤ¹çļĦ": 5833,
      "æĥ³è±¡": 5834,
      "ä»¬çļĦ": 5835,
      "å¾Īå¥½çļĦ": 5836,
      "èĻļæĭŁ": 5837,
      "ç¡ħ": 5838,
      "æ¤Ĵ": 5839,
      "èı²å¾ĭ": 5840,
      "ä¸įè§ģ": 5841,
      "ç½ķ": 5842,
      "éĹ¨åı£": 5843,
      "è¯±äºº": 5844,
      "age": 5845,
      "åŃ¦ä½į": 5846,
      "æĽ´æľī": 5847,
      "èĲ½åľ°": 5848,
      "å§Ĳå¦¹": 5849,
      "ä¼łè¯´": 5850,
      "è¯ģæį®": 5851,
      "è¡¥è´´": 5852,
      "Ġåıĳçİ°": 5853,
      "ä¸įè¦ģéĶĻè¿ĩ": 5854,
      "çļĦè®¾è®¡": 5855,
      "æĬ¹": 5856,
      "å¼ºå¤§çļĦ": 5857,
      "ä¸Ńæľī": 5858,
      "æĪĳè§īå¾Ĺ": 5859,
      "å¾·éĩĮ": 5860,
      "çļĦçłĶç©¶": 5861,
      "éĢĽ": 5862,
      "çº³åħ¥": 5863,
      "èĽ®": 5864,
      "èĥĢ": 5865,
      "èı²å¾ĭå®¾": 5866,
      "ĠãĢĲ": 5867,
      "åĩ°": 5868,
      "å±ķè§Ī": 5869,
      "amp": 5870,
      "è½©": 5871,
      "ĊĊ": 5872,
      "æĪĳä¸į": 5873,
      "åĲĦçº§": 5874,
      "1990": 5875,
      "ãĢĭ|": 5876,
      "çĸ²": 5877,
      "ç©¶ç«Ł": 5878,
      "ä¸įå¾Ĺä¸į": 5879,
      "å·²æľī": 5880,
      "éļľç¢į": 5881,
      "ç§ģäºº": 5882,
      "110": 5883,
      "åįĬéķ¿è½´": 5884,
      "ä¸įåıĬ": 5885,
      "é¥°æ¼Ķ": 5886,
      "è¯ģä¹¦": 5887,
      "åıĤè§Ĥ": 5888,
      "ç©¿çĿĢ": 5889,
      "å°ļæľª": 5890,
      "æ³½ä¸ľ": 5891,
      "åħįçĸ«": 5892,
      "äº©": 5893,
      "éº»çĥ¦": 5894,
      "éĻķè¥¿": 5895,
      "BS": 5896,
      "é«ĺé¢ľåĢ¼": 5897,
      "92": 5898,
      "å¹´èĩ³": 5899,
      "å¯¼èĪª": 5900,
      "åħ³éĹŃ": 5901,
      "åįľ": 5902,
      "æ¯ıä¸ªäºº": 5903,
      "å¨±ä¹Ĳåľº": 5904,
      "ä¸´åºĬ": 5905,
      "è®¢åįķ": 5906,
      "ä¸ŃåĽ½äººæ°ĳ": 5907,
      ",âĢĿ": 5908,
      "éĹ´çļĦ": 5909,
      "æ²¡æĥ³åĪ°": 5910,
      "èĶ¬": 5911,
      "ä¿©": 5912,
      "æ¯Ľæ³½ä¸ľ": 5913,
      "ä¹ĭè·¯": 5914,
      "çłĶç©¶éĻ¢": 5915,
      "ä»²": 5916,
      "åĨħå°Ħ": 5917,
      "æıĲåĪ°": 5918,
      "å±±è¥¿": 5919,
      "åħ¥åı£": 5920,
      "æ´»è·ĥ": 5921,
      "æĶ¹ä¸º": 5922,
      "åį´æĺ¯": 5923,
      "å±Į": 5924,
      "çĽ®å½ķ": 5925,
      "èħº": 5926,
      "è´µå·ŀ": 5927,
      "çķĻä¸ĭ": 5928,
      "æıĲåĩºäºĨ": 5929,
      "åı¦ä¸Ģæĸ¹éĿ¢": 5930,
      "åŃ¸": 5931,
      "äººéĥ½": 5932,
      "1997": 5933,
      "å«ģ": 5934,
      "sp": 5935,
      "æĢ¡": 5936,
      "å®¢æľį": 5937,
      "æĺ¾çĦ¶": 5938,
      "æµĭéĩı": 5939,
      "è»Ĭ": 5940,
      "åįģå¤§": 5941,
      "äºŃ": 5942,
      "åĮĢ": 5943,
      "æīĭæ¸¸": 5944,
      "çĶ±æŃ¤": 5945,
      "ç¢Ĺ": 5946,
      "QQ": 5947,
      "äººæ°ĳæĶ¿åºľ": 5948,
      "åĲĮå¹´": 5949,
      "å¸¦åĬ¨": 5950,
      "å¼ķé¢Ĩ": 5951,
      "ĠUA": 5952,
      "è½¬æį¢": 5953,
      "èŁ¹": 5954,
      "81": 5955,
      "ä¸įåģľ": 5956,
      "åĶ¤": 5957,
      "èĥĮåĲİ": 5958,
      "æĥ§": 5959,
      "é¦¨": 5960,
      "éĵŃ": 5961,
      "åĻ¨çļĦ": 5962,
      "ä¿®å¤į": 5963,
      "è·ŁçĿĢ": 5964,
      "åŁİä¹¡": 5965,
      "çĸ«èĭĹ": 5966,
      "åıĳæĺİ": 5967,
      "æĪĳè¯´": 5968,
      "å»ºéĢł": 5969,
      "èĿ¶": 5970,
      "å§Ĳå§Ĳ": 5971,
      "çĸ«æĥħéĺ²æİ§": 5972,
      "ä¸Īå¤«": 5973,
      "ä¸ĬçıŃ": 5974,
      "çĶŁæ¶¯": 5975,
      "æŀļ": 5976,
      "ä¼ĺåħĪ": 5977,
      "å¤§å¥¶": 5978,
      "ä»ĸæĺ¯": 5979,
      "éĺŁçļĦ": 5980,
      "å¸¦å°ıè¡ĮæĺŁ": 5981,
      "å°½éĩı": 5982,
      "æĸ°åĮº": 5983,
      "è¿Ŀè§Ħ": 5984,
      "å®ļæľŁ": 5985,
      "åĮºåĿĹ": 5986,
      "æŃ£è§Ħ": 5987,
      "åıįèĢĮ": 5988,
      "èģĮåĬ¡": 5989,
      "å¤«äºº": 5990,
      "è§Ĥå¿µ": 5991,
      "åª³": 5992,
      "éĢıè¿ĩ": 5993,
      "åİŁçĲĨ": 5994,
      "èģĬå¤©": 5995,
      "å®¶éĩĮ": 5996,
      "æĪĲåĪĨ": 5997,
      "æĺ¾èĳĹ": 5998,
      "é¸Ń": 5999,
      "åŃ©åŃĲçļĦ": 6000,
      "å§Ĩæĸ¯": 6001,
      "ET": 6002,
      "åĲİéĿ¢": 6003,
      "èĤ¾": 6004,
      "æ¢¨": 6005,
      "èĩ´åĬĽäºİ": 6006,
      "ç»³": 6007,
      "åĲĮæĢ§": 6008,
      "ä¸Ģç³»åĪĹ": 6009,
      "è¿ĻæĹ¶": 6010,
      "çī©åĵģ": 6011,
      "æ¶īå«Į": 6012,
      "ĠX": 6013,
      "èĩĤ": 6014,
      "äºĮæīĭ": 6015,
      "ä¼łéĢĴ": 6016,
      "äºĶå¹´": 6017,
      "åģ¥èº«": 6018,
      "å¼Ĥå¸¸": 6019,
      "å¤¸": 6020,
      "ä¸įä¸Ģæł·": 6021,
      "å¯¹åºĶ": 6022,
      "æĢ§æł¼": 6023,
      "çĶ·åŃ©": 6024,
      "æİĴè¡Į": 6025,
      "eg": 6026,
      "æĪĲäº¤": 6027,
      "ä½ıäºĨ": 6028,
      "åĲĥé¥Ń": 6029,
      "å°ıè¡ĮæĺŁå¸¦å°ıè¡ĮæĺŁ": 6030,
      "ä¸¤åĽ½": 6031,
      "ä¸ĩè¾Ĩ": 6032,
      "éĤ®ä»¶": 6033,
      "æĹłè®ºæĺ¯": 6034,
      "é©¬åħĭæĢĿ": 6035,
      "æį®äºĨè§£": 6036,
      "å®ŀéªĮå®¤": 6037,
      "é«ĺåħ´": 6038,
      "æ¼ł": 6039,
      "å¸Ĥéķ¿": 6040,
      "BC": 6041,
      "èĢķ": 6042,
      "æĥ©": 6043,
      "èĪŁ": 6044,
      "åĴ¸": 6045,
      "éģ£": 6046,
      "ä¿¡ä»»": 6047,
      "çĹħä¾ĭ": 6048,
      "éªĮè¯ģ": 6049,
      "ãĤĵ": 6050,
      "è°ĥèĬĤ": 6051,
      "å¦ĩå¥³": 6052,
      "ff": 6053,
      "å¸Ĳ": 6054,
      "ä½łåı¯ä»¥": 6055,
      "åĸĺ": 6056,
      "çĩ¥": 6057,
      "æĻ´": 6058,
      "æĢİéº½": 6059,
      "æĹģè¾¹": 6060,
      "ail": 6061,
      "ä¸įåĩº": 6062,
      "ä¸ĵæ³¨": 6063,
      "æ¸ħåįİ": 6064,
      "åĬŀäºĭ": 6065,
      "èķī": 6066,
      "ä¸Ģå£°": 6067,
      "æĺ¯ä»¥": 6068,
      "èĻ¹": 6069,
      "æ¨¡æĭŁ": 6070,
      "è®²è¿°": 6071,
      "ĠæĹ¥è¯Ń": 6072,
      "åĥµ": 6073,
      "è¿Ľå±ķ": 6074,
      "å¿ĥæĥħ": 6075,
      "éºµ": 6076,
      "éľ²èĦ¸": 6077,
      "åĬ£": 6078,
      "å¼Ģå¹ķ": 6079,
      "å¦¥": 6080,
      "å°ıèªª": 6081,
      "åĲĪå¹¶": 6082,
      "æ²Ļåıĳ": 6083,
      "ä¸Ģçº¿": 6084,
      "åİĮ": 6085,
      "èĦĨ": 6086,
      "èĩªæ²»åĮº": 6087,
      "èĩªä¿¡": 6088,
      "åį±å®³": 6089,
      "ç¡¬ä»¶": 6090,
      "ç®ĢåįķçļĦ": 6091,
      "94": 6092,
      "Windows": 6093,
      "çļĦä¸ŃåĽ½": 6094,
      "è®°è½½": 6095,
      "æĹħå®¢": 6096,
      "é¦ĸé¡µ": 6097,
      "å¯¼å¼¹": 6098,
      "æ·ĺå®Ŀ": 6099,
      "è¿Ļä¹Łæĺ¯": 6100,
      "æĪĲä¸ºäºĨ": 6101,
      "å¾Īå°ĳ": 6102,
      "èĪĶ": 6103,
      "æłĩçŃ¾": 6104,
      "org": 6105,
      "äº¨": 6106,
      "ä¹Łå°Ĩ": 6107,
      "ç¾İæľ¯": 6108,
      "è¶ħè¶Ĭ": 6109,
      "éģŃåĪ°": 6110,
      "ĠæĹ¥è¯ŃåİŁæĸĩ": 6111,
      "çļĦä¼ģä¸ļ": 6112,
      "ç¾ŀ": 6113,
      "å¤ļäºº": 6114,
      "è¯ķçĤ¹": 6115,
      "å¯ĨåĪĩ": 6116,
      "å±ħçĦ¶": 6117,
      "æĶ»åĿļ": 6118,
      "Ġæĸ°": 6119,
      "éĶ»": 6120,
      "å¿ħçĦ¶": 6121,
      "èİ·å¾ĹäºĨ": 6122,
      "æİĴæĶ¾": 6123,
      "ä¸įéĶĻçļĦ": 6124,
      "åıĳçĶµ": 6125,
      "è¶ģ": 6126,
      "ä¸ĸçķĮæĿ¯": 6127,
      "äºĴçĽ¸": 6128,
      "çĮ´": 6129,
      "åľ¨å¤§": 6130,
      "çĶ¨åĵģ": 6131,
      "å§ļ": 6132,
      "åı¸é©¬": 6133,
      "çĶµæºĲ": 6134,
      "æµİåįĹ": 6135,
      "3000": 6136,
      "ç»§æī¿": 6137,
      "çļĦèĢģ": 6138,
      "ä¸İæŃ¤": 6139,
      "æŃĩ": 6140,
      "äºĨä¸Ģä¸ĭ": 6141,
      "çļĦæĬĢæľ¯": 6142,
      "åıĽ": 6143,
      "éªĳå£«": 6144,
      "Ġr": 6145,
      "åĩºåĶ®": 6146,
      "ä½łæĺ¯": 6147,
      "åŃ¦çĶŁçļĦ": 6148,
      "èĸĩ": 6149,
      "ä¸ĳ": 6150,
      "åı°ä¸Ń": 6151,
      "Ġ16": 6152,
      "æĹ©å·²": 6153,
      "çĢ": 6154,
      "æĶ¯åĩº": 6155,
      "å°į": 6156,
      "å¤§å¤ļ": 6157,
      "æµ¸": 6158,
      "ich": 6159,
      "åĪĽå§ĭ": 6160,
      "æ¸©æļĸ": 6161,
      "å§¿åĬ¿": 6162,
      "ÃĹ": 6163,
      "åĩºè¡Į": 6164,
      "é¦ĸå¸Ń": 6165,
      "93": 6166,
      "ä¸ĩç¾İåħĥ": 6167,
      "åĤ»": 6168,
      "éĻ·åħ¥": 6169,
      "æ°ĶçļĦ": 6170,
      "æĬķç¥¨": 6171,
      "è¡į": 6172,
      "å¤©ç©º": 6173,
      "åİ¨æĪ¿": 6174,
      ">>": 6175,
      "åĲİæľŁ": 6176,
      "ä¸¤æ¬¡": 6177,
      "çĶ·çĶŁ": 6178,
      "åİ¦éĹ¨": 6179,
      "çļĦç¬¬ä¸Ģ": 6180,
      "æ¯«æĹł": 6181,
      "çĽĪåĪ©": 6182,
      "Ġä¸Ń": 6183,
      "çī©çļĦ": 6184,
      "éģŃéģĩ": 6185,
      "éĹ½": 6186,
      "æĥħè¶£": 6187,
      "ç©ºåĨĽ": 6188,
      "AS": 6189,
      "éĩįçļĦ": 6190,
      "ä¸īåĪĨ": 6191,
      "å§ĳå¨ĺ": 6192,
      "ID": 6193,
      "è¡Įæĥħ": 6194,
      "çī¹æĢ§": 6195,
      "å©·": 6196,
      "æĻ¯çĤ¹": 6197,
      "æĭĽèģĺ": 6198,
      "å°Ķæĸ¯": 6199,
      "å¼ºåº¦": 6200,
      "æ¬§ç¾İ": 6201,
      "è¡ĮæĶ¿åĮº": 6202,
      "ä½įçļĦ": 6203,
      "ç¿ł": 6204,
      "ç«ŀèµĽ": 6205,
      "éĢĢåĩº": 6206,
      "io": 6207,
      "æłĭ": 6208,
      "ãĥĥ": 6209,
      "ain": 6210,
      "ç¾İåĽ½çļĦ": 6211,
      "ç¬¬ä¸ĥ": 6212,
      "å¾Ĺä»¥": 6213,
      "åįłæ¯Ķ": 6214,
      "éĻĦä»¶": 6215,
      "txt": 6216,
      "å¿«éĢĴ": 6217,
      "çº¤ç»´": 6218,
      "çĻ»éĻĨ": 6219,
      "çĤŃ": 6220,
      "å¤ıå¤©": 6221,
      "pl": 6222,
      "æľĢä¸º": 6223,
      "å¹³å®ī": 6224,
      "è¾ĵåĩº": 6225,
      "å¹¸è¿Ĳ": 6226,
      "æ¬§çĽŁ": 6227,
      "æ¬£èµı": 6228,
      "æ°ĽåĽ´": 6229,
      "åľ¨æĪĳ": 6230,
      "å®ŀæĹ¶": 6231,
      "æĳĬ": 6232,
      "æĶ¹ç¼ĸ": 6233,
      "LED": 6234,
      "æľªæĿ¥çļĦ": 6235,
      "æĢĢçĸĳ": 6236,
      "å··": 6237,
      "çļĦæľºä¼ļ": 6238,
      "è´ª": 6239,
      "è¿Ľç¨ĭ": 6240,
      "èº²": 6241,
      "æ¼Ķè®²": 6242,
      "æ¡£æ¡Ī": 6243,
      "åĲĮæ¯Ķå¢ŀéķ¿": 6244,
      "çļĦä»·æł¼": 6245,
      "å±¥è¡Į": 6246,
      "æµ·åįĹ": 6247,
      "æļ´åĬĽ": 6248,
      "Ġk": 6249,
      "å¸ĤæĶ¿åºľ": 6250,
      "èİ·å¥ĸ": 6251,
      "åĳ½ä»¤": 6252,
      "æķ´æ²»": 6253,
      "å¤ıåŃ£": 6254,
      "äº§çĶŁçļĦ": 6255,
      "äºĪä»¥": 6256,
      "EC": 6257,
      "å¹³æĪĲ": 6258,
      "æľĢåĲİä¸Ģ": 6259,
      "ass": 6260,
      "éĤ®ç®±": 6261,
      "éĺ¿æĭīä¼¯": 6262,
      "çº±": 6263,
      "åĵģç§į": 6264,
      "æĪĳä¹Ł": 6265,
      "å¢ŀéĢŁ": 6266,
      "å¥ĭæĸĹ": 6267,
      "ä¸įèī¯": 6268,
      "éĥ¨ä»¶": 6269,
      "çº§çļĦ": 6270,
      "ao": 6271,
      "åīĬ": 6272,
      "å§¬": 6273,
      "æīĵçł´": 6274,
      "çĹħäºº": 6275,
      "çĶŁæ´»çļĦ": 6276,
      "ä»ħä»ħ": 6277,
      "çģµæ´»": 6278,
      "æīĩ": 6279,
      "åŃ¦çļĦ": 6280,
      "ç¿ĺ": 6281,
      "æĤĶ": 6282,
      "åºĶè¯¥æĺ¯": 6283,
      "æĹĹä¸ĭ": 6284,
      "ä¸įå¤ª": 6285,
      "ä¸ļä¸»": 6286,
      "åĿª": 6287,
      "çłĶç©¶çĶŁ": 6288,
      "å¨ģå»ī": 6289,
      "åİĤåķĨ": 6290,
      "æĸ©": 6291,
      "æĶ»çķ¥": 6292,
      "ost": 6293,
      "å¹´éĹ´": 6294,
      "åŃ¦åİĨ": 6295,
      "åħ¶æ¬¡": 6296,
      "æľŁè´§": 6297,
      "å¤ļæł·": 6298,
      "éĻ¢æł¡": 6299,
      "çŁŃæľŁ": 6300,
      "åĲ«æľī": 6301,
      "æĪĳä»¬åľ¨": 6302,
      "å´©": 6303,
      "çļĦä½įç½®": 6304,
      "æ¸Ĺ": 6305,
      "éĥ½å¾Ī": 6306,
      "èĢĮä¸į": 6307,
      "Ġ15": 6308,
      "ç½Ĳ": 6309,
      "åħ¬åħĥ": 6310,
      "ç¬¼": 6311,
      "åľºæ¯ĶèµĽ": 6312,
      "360": 6313,
      "æ·®": 6314,
      "åĲĦåĽ½": 6315,
      "Ġä¸ĭè½½": 6316,
      "ä¸Ģä»½": 6317,
      "AT": 6318,
      "å¼¦": 6319,
      "å¤´åıĳ": 6320,
      "æĬĢæľ¯çļĦ": 6321,
      "èµĮåįļ": 6322,
      "æŃ§": 6323,
      "åĲİåħ¥": 6324,
      "ä¿¡ä»°": 6325,
      "èģĮè´£": 6326,
      "å®Ŀè´Ŀ": 6327,
      "ç´§æĢ¥": 6328,
      "åĩ¤åĩ°": 6329,
      "è¿Ļä¸¤": 6330,
      "éĻĨç»Ń": 6331,
      "åıĳåĬ¨æľº": 6332,
      "æıĲä¾ĽçļĦ": 6333,
      "éĸĴ": 6334,
      "æİ¥ä¸ĭæĿ¥": 6335,
      "æĹ¶æĹ¶å½©": 6336,
      "åį¸": 6337,
      "æĿī": 6338,
      "åĹ¯": 6339,
      "çļĦå£°éŁ³": 6340,
      "å¤§éģĵ": 6341,
      "Ġy": 6342,
      "èĲ¥éĢł": 6343,
      "æĴ°": 6344,
      "å¤Ħç½ļ": 6345,
      "æ£ļ": 6346,
      "FC": 6347,
      "å·¢": 6348,
      "éĽĨæĪĲ": 6349,
      "å¡ĺ": 6350,
      "è¾ħåĬ©": 6351,
      "IT": 6352,
      "ä¸įåı¯èĥ½": 6353,
      "çİ°æľī": 6354,
      "åįĹæĸ¹": 6355,
      "èµ°è¿Ľ": 6356,
      "çľ¼éķľ": 6357,
      "åĬ¿åĬĽ": 6358,
      "å¯Ĩçłģ": 6359,
      "opy": 6360,
      "ä¸Ĭæľī": 6361,
      "åľºçļĦ": 6362,
      "æĪĺå½¹": 6363,
      "ç«ĭåĪ»": 6364,
      "å¹²åĩĢ": 6365,
      "è¢Ńåĩ»": 6366,
      "çļĩå®¶": 6367,
      "èĮĥåĽ´åĨħ": 6368,
      "çĲĨè´¢": 6369,
      "æ´»åĬĽ": 6370,
      "éģ®": 6371,
      "ä¸īæĺŁ": 6372,
      "ä¸»æĮģäºº": 6373,
      "è´©": 6374,
      "æīĢå¾Ĺ": 6375,
      "åı·çłģ": 6376,
      "èĩŃ": 6377,
      "æĢİä¹ĪåĬŀ": 6378,
      "è¡Įä¸ļçļĦ": 6379,
      "é©¬æĿ¥è¥¿äºļ": 6380,
      "AN": 6381,
      "åĬĿ": 6382,
      "å°ıåŃ©": 6383,
      "æīįä¼ļ": 6384,
      "å¨ģå°Ķ": 6385,
      "èĳ±": 6386,
      "æļ¨": 6387,
      "ç§¯ç´¯": 6388,
      "å·¥ç¨ĭå¸Ī": 6389,
      "ä¼łåªĴ": 6390,
      "èĪĴæľį": 6391,
      "å¤ļå®¶": 6392,
      "ne": 6393,
      "èĤ¡ä»½æľīéĻĲåħ¬åı¸": 6394,
      "èĳĹåĲįçļĦ": 6395,
      "ä¸ŃåĽ½çī¹èī²": 6396,
      "800": 6397,
      "æ³µ": 6398,
      "é«ĺäºİ": 6399,
      "æĸĩçĮ®": 6400,
      "äº§éĩı": 6401,
      "å¤§è§Ħæ¨¡": 6402,
      "æ²ª": 6403,
      "æŀ«": 6404,
      "æĸ¯ç§ĳ": 6405,
      "æ£ĢéªĮ": 6406,
      "å±ł": 6407,
      "ç®Ĺæ³ķ": 6408,
      "ä¸¸": 6409,
      "ä¸Ļ": 6410,
      "åŁºæľ¬ä¸Ĭ": 6411,
      "Ġ.": 6412,
      "åĲĮæŃ¥": 6413,
      "éħįå¤ĩ": 6414,
      "äºĨä¸ª": 6415,
      "æľīæķĪçļĦ": 6416,
      "èºº": 6417,
      "çļĦæµ·": 6418,
      "çļĦåĽ½å®¶": 6419,
      "åĲĪéĽĨ": 6420,
      "çĻ«çĹ": 6421,
      "èį·åħ°": 6422,
      "ä»Ķç»Ĩ": 6423,
      "éķ¿æĹ¶éĹ´": 6424,
      "ç¥¸": 6425,
      "çĻ«çĹ«": 6426,
      "ä¸Ģæĸ¹éĿ¢": 6427,
      "ä¸»æķĻ": 6428,
      "ç¼ĸåı·": 6429,
      "çļĦè¡Įä¸º": 6430,
      "çĶµä¿¡": 6431,
      "è¿Ĳä½ľ": 6432,
      "å±ŀæĢ§": 6433,
      "ah": 6434,
      "æĽ´æį¢": 6435,
      "åĽ¢ç»ĵ": 6436,
      "åıĤèµĽ": 6437,
      "per": 6438,
      "å¼ķåħ¥": 6439,
      "åŁ¹èĤ²": 6440,
      "ä¸įéľĢè¦ģ": 6441,
      "æł¼å±Ģ": 6442,
      "åĽ½è¯Ń": 6443,
      "çļĦä¸Ģéĥ¨åĪĨ": 6444,
      "æ£Ģå¯Ł": 6445,
      "ĠKB": 6446,
      "áł": 6447,
      "çį": 6448,
      "æĺ¯è¦ģ": 6449,
      "éĹ·": 6450,
      "ä»İæĿ¥": 6451,
      "åıĳéĢģ": 6452,
      "æĸ°é²ľ": 6453,
      "æĥħä¾£": 6454,
      "çĪ±å¥½": 6455,
      "åİķæīĢ": 6456,
      "åĮºåĿĹéĵ¾": 6457,
      "æľīè¶£": 6458,
      "åĮĸå¦Ĩ": 6459,
      "å¤´çļĦ": 6460,
      "åĨįåº¦": 6461,
      "ox": 6462,
      "æĭĺ": 6463,
      "ãģŁ": 6464,
      "å¦ŀ": 6465,
      "è®®ä¼ļ": 6466,
      "ç®Ĺæĺ¯": 6467,
      "æĿĳæ°ĳ": 6468,
      "çĹĽèĭ¦": 6469,
      "å½¼æŃ¤": 6470,
      "ä¼ļè®¡": 6471,
      "æľĪåºķ": 6472,
      "ä¸įåĬ¨": 6473,
      "æıĲåĲį": 6474,
      "æĹ¢çĦ¶": 6475,
      "äººäºº": 6476,
      "ç§©": 6477,
      "è°Ĭ": 6478,
      "å¤©ä½¿": 6479,
      "æº¢": 6480,
      "èĳĹä½ľ": 6481,
      "åĴĮè°Ĳ": 6482,
      "æľīåĪ©äºİ": 6483,
      "ä¸įä½Ĩ": 6484,
      "çĽ¸ä¼¼": 6485,
      "æķħéļľ": 6486,
      "åºĵåŃĺ": 6487,
      "ä¹łè¿ĳå¹³æĢ»ä¹¦è®°": 6488,
      "Ð¾": 6489,
      "ä¸»äºº": 6490,
      "åįģä¸ĥ": 6491,
      "åĦĴ": 6492,
      "çİ¯çĲĥ": 6493,
      "åŁºç¡Ģè®¾æĸ½": 6494,
      "æī©å±ķ": 6495,
      "åıįé¦Ī": 6496,
      "åĩ»è´¥": 6497,
      "å®¡æī¹": 6498,
      "å°ıç±³": 6499,
      "çı¾": 6500,
      "AC": 6501,
      "ä¸Ĭçº¿": 6502,
      "æ¸ħæ´Ĺ": 6503,
      "éŃħåĬĽ": 6504,
      "åįıåĲĮ": 6505,
      "èĦ¸ä¸Ĭ": 6506,
      "ĠåĴĮ": 6507,
      "æĦ¤": 6508,
      "åĪ¶éĢłä¸ļ": 6509,
      "æĹŃ": 6510,
      "æĸ°æµª": 6511,
      "ore": 6512,
      "man": 6513,
      "çĶŁèĤ²": 6514,
      "åİĨåı²ä¸Ĭ": 6515,
      "ive": 6516,
      "\">": 6517,
      "ä¿¡æģ¯åĮĸ": 6518,
      "äºĨèµ·æĿ¥": 6519,
      "åĩºçīĪç¤¾": 6520,
      "é£İæĻ¯": 6521,
      "èĵĦ": 6522,
      "ä¸Ĭå¸Ĥåħ¬åı¸": 6523,
      "æĬ¤çĲĨ": 6524,
      "ice": 6525,
      "çī©ä¸ļ": 6526,
      "é¡¾éĹ®": 6527,
      "éĸĭ": 6528,
      "ç»ŁçŃ¹": 6529,
      "ran": 6530,
      "ä¿Ŀåħ»": 6531,
      "åĸĤ": 6532,
      "é¢Ĩå¯¼äºº": 6533,
      "æ´¾åĩº": 6534,
      "é¸¡å·´": 6535,
      "çļĦé¦ĸ": 6536,
      "åįķåħĥ": 6537,
      "ä¼Ĭæĸ¯": 6538,
      "çļĦèĥ½åĬĽ": 6539,
      "åħ¨ç¨ĭ": 6540,
      "åī§éĽĨ": 6541,
      "èĢĮå·²": 6542,
      "æĹ¥ä¸ĭåįĪ": 6543,
      "å¼ºå¥¸": 6544,
      "å°½å¿«": 6545,
      "ä¼łç»ŁçļĦ": 6546,
      "ld": 6547,
      "Ġ[": 6548,
      "å·©": 6549,
      "æĹłæķ°": 6550,
      "é¦Ļèķī": 6551,
      "ç¤¼çī©": 6552,
      "æ³Ĭ": 6553,
      "å®¶å±ħ": 6554,
      "èħ»": 6555,
      "ç«ŀæĬĢ": 6556,
      "åİŁå§ĭ": 6557,
      "te": 6558,
      "åľ¨ä»ĸ": 6559,
      "åĮĹéĥ¨": 6560,
      "ç»Ļå¤§å®¶": 6561,
      "å®ŀçİ°äºĨ": 6562,
      "åıĳèµ·": 6563,
      "çİĭæľĿ": 6564,
      "å¿«ä¸ī": 6565,
      "ãĥ©": 6566,
      "Ġto": 6567,
      "åĩŃåĢŁ": 6568,
      "çľ¼åīį": 6569,
      "PC": 6570,
      "åħ¨ä¸ĸçķĮ": 6571,
      "åįĹéĥ¨": 6572,
      "åľ¨åĮĹäº¬": 6573,
      "åĽ½ä¼ļ": 6574,
      "æģ¼": 6575,
      "ä¸ĵçĶ¨": 6576,
      "ä¸¾æİª": 6577,
      "å¡ĳæĸĻ": 6578,
      "æ¡Ĩæŀ¶": 6579,
      "åľ°éľĩ": 6580,
      "å¢ĥåĨħ": 6581,
      "åľ¨çº¿è§Ĩé¢ĳ": 6582,
      "åĨ¬åŃ£": 6583,
      "ç¶ĵ": 6584,
      "çļĦéľĢæ±Ĥ": 6585,
      "éĽĩ": 6586,
      "çĶŁç´ł": 6587,
      "ç¾İå¥½": 6588,
      "çħ§é¡¾": 6589,
      "éĿĴå°ĳå¹´": 6590,
      "çļĦåŁºæľ¬": 6591,
      "èīĺ": 6592,
      "æīĵåį°": 6593,
      "åıĸä»£": 6594,
      "èļĢ": 6595,
      "æ³¢åĬ¨": 6596,
      "ãĦ": 6597,
      "çĳľ": 6598,
      "æ¸Ĳæ¸Ĳ": 6599,
      "éĳ«": 6600,
      "AM": 6601,
      "CD": 6602,
      "ç©ºä¸Ń": 6603,
      "è±«": 6604,
      "æķ°æį®æĺ¾ç¤º": 6605,
      "åµ": 6606,
      "ä¼łæī¿": 6607,
      "åıĳå¸ĥçļĦ": 6608,
      "çļĦå¸Ĥåľº": 6609,
      "æĭĮ": 6610,
      "æĮĩå®ļ": 6611,
      "æ°¢": 6612,
      "ç¡ķå£«": 6613,
      "æİ©": 6614,
      "åŃĲå¥³": 6615,
      "è°ĪåĪ¤": 6616,
      "æ¯ķä¸ļçĶŁ": 6617,
      "ä¸Ģåº¦": 6618,
      "ä¸»å¼ł": 6619,
      "æ°ĳèĲ¥": 6620,
      "GC": 6621,
      "bb": 6622,
      "å¸ĸ": 6623,
      "ä¿Ŀåģ¥": 6624,
      "èį£èªī": 6625,
      "æĹ¥ä¸ĬåįĪ": 6626,
      "å¥½åıĭ": 6627,
      "åĲ¬è¯´": 6628,
      "çĶ¨äºĨ": 6629,
      "ç¤¾ä¿Ŀ": 6630,
      "åħ»æ®ĸ": 6631,
      "çļĦæľįåĬ¡": 6632,
      "è¦ģæĺ¯": 6633,
      "åīįéĿ¢": 6634,
      "åºĶæĢ¥": 6635,
      "æĺŁåº§": 6636,
      "çĻ¾å¹´": 6637,
      "æŃ¦è£ħ": 6638,
      "å®ĥæĺ¯": 6639,
      "è¯»èĢħ": 6640,
      "è¿Ļå®¶": 6641,
      "éĢļæĬ¥": 6642,
      "å»¶ä¼¸": 6643,
      "éĢĶå¾Ħ": 6644,
      "Ġst": 6645,
      "æį®æĤī": 6646,
      "åı£åĳ³": 6647,
      "æĬ¥è®°èĢħ": 6648,
      "ina": 6649,
      "1996": 6650,
      "å·¾": 6651,
      "äº§ä¸ļéĵ¾": 6652,
      "çİ°ä»£åĮĸ": 6653,
      "æ¸¸æ³³": 6654,
      "åĨĻçľŁ": 6655,
      "æµªæ¼«": 6656,
      "ä¹ĺå®¢": 6657,
      "æĹ¶åħī": 6658,
      "åĽĽå¤§": 6659,
      "è¯»ä¹¦": 6660,
      "ç§©åºı": 6661,
      "NBA": 6662,
      "çŃĴ": 6663,
      "ä¹Łä¸įä¼ļ": 6664,
      "ä¿Ŀç½Ĺ": 6665,
      "åİ»ä¸ĸ": 6666,
      "æĻ®æŁ¥": 6667,
      "åįıåķĨ": 6668,
      "ä¾Ŀèµĸ": 6669,
      "ĠThe": 6670,
      "æ®ĸæ°ĳ": 6671,
      "è¿Ļç±»": 6672,
      "çħĮ": 6673,
      "è¹Ī": 6674,
      "å¾Īæĺ¯è¯±æĥĳ": 6675,
      "åī¯ä¸»ä»»": 6676,
      "ber": 6677,
      "sm": 6678,
      "Ġä½ł": 6679,
      "å®Ľ": 6680,
      "æĺİçļĦ": 6681,
      "Ġ+": 6682,
      "å¯¹åħ¶": 6683,
      "åħĨ": 6684,
      "æķ²": 6685,
      "ç²¾éĢī": 6686,
      "ark": 6687,
      "ä¸¤å²¸": 6688,
      "äºĨè§£åĪ°": 6689,
      "br": 6690,
      "éĢ²": 6691,
      "ä¸ºæŃ¢": 6692,
      "ä¸ļåĨħ": 6693,
      "æĪ·å¤ĸ": 6694,
      "çĽĳå¯Ł": 6695,
      "ON": 6696,
      "æĥħæĦŁ": 6697,
      "éļ¾åº¦": 6698,
      "èģļçĦ¦": 6699,
      "å´Ķ": 6700,
      "æ°ĳçĶŁ": 6701,
      "çº¿ä¸ĭ": 6702,
      "åĮĹæµ·": 6703,
      "ç»ıæµİåıĳå±ķ": 6704,
      "çģ«ç®Ń": 6705,
      "çŁŃä¿¡": 6706,
      "éĨĩ": 6707,
      "å¤§éĩıçļĦ": 6708,
      "æľªèĥ½": 6709,
      "ä¸İæŃ¤åĲĮæĹ¶": 6710,
      ",,": 6711,
      "Ġè¿Ļæĺ¯": 6712,
      "äºĨå¾Īå¤ļ": 6713,
      "å¯¹çĻ½": 6714,
      "å·¥ä½ľå®¤": 6715,
      "åģĩå¦Ĥ": 6716,
      "èĵĿèī²": 6717,
      "åħ¬ä¼Ĺåı·": 6718,
      "å§Ķæīĺ": 6719,
      "éĶĢåķĨ": 6720,
      "åĬ©åĬĽ": 6721,
      "è¡Įç¨ĭ": 6722,
      "éģİ": 6723,
      "æµ·æĭĶ": 6724,
      "è¯¾åłĤ": 6725,
      "æĹ¬": 6726,
      "æŃ¤åĲİ": 6727,
      "ä¸¤ä½į": 6728,
      "çĶ³æĬ¥": 6729,
      "çľĭçļĦ": 6730,
      "çıĬ": 6731,
      "ä¸¾æĬ¥": 6732,
      "oy": 6733,
      "ä¸įä¸Ĭ": 6734,
      "è®¤å®ļ": 6735,
      "çĥŃçĤ¹": 6736,
      "Ġæľī": 6737,
      "çļĦéķ¿": 6738,
      "ä¸»æµģ": 6739,
      "å¤įåħ´": 6740,
      "ç§¯åĪĨ": 6741,
      "æĳĦåĥı": 6742,
      "çĽ®åħī": 6743,
      "çļĦä½¿çĶ¨": 6744,
      "ĠåĩºçĶŁ": 6745,
      "åŃĹæ¯į": 6746,
      "åŃ£èĬĤ": 6747,
      "ES": 6748,
      "TC": 6749,
      "å¤§æ¥¼": 6750,
      "çĽ²": 6751,
      "éģĤ": 6752,
      "æĿĥå¨ģ": 6753,
      "éĺ²æĬ¤": 6754,
      "åĪ¶çļĦ": 6755,
      "å£¤": 6756,
      "åĻª": 6757,
      "å¤®è¡Į": 6758,
      "æī©å¼ł": 6759,
      "ä¼Łå¤§": 6760,
      "åĿİ": 6761,
      "å¾Īå®¹æĺĵ": 6762,
      "ãģĭ": 6763,
      "åĬŁçİĩ": 6764,
      "æ¾Ħ": 6765,
      "åľ¨äºĨ": 6766,
      "ç»Ļä»ĸ": 6767,
      "åħħçĶµ": 6768,
      "ä¼½": 6769,
      "æľºéģĩ": 6770,
      "è§ģåĪ°": 6771,
      "æ¨¡åĿĹ": 6772,
      "Phone": 6773,
      "å¹´åĪĿ": 6774,
      "åįĬå²Ľ": 6775,
      "æĭħå½ĵ": 6776,
      "ä¸ĢçĽ´åľ¨": 6777,
      "cm": 6778,
      "å¤§æ°Ķ": 6779,
      "åħ¬åĬ¡": 6780,
      "æĸĩèīº": 6781,
      "ãĤ¯": 6782,
      "è´¦åı·": 6783,
      "ä¸Ģçīĩ": 6784,
      "è¾Ĳ": 6785,
      "è²»": 6786,
      "ç®¡éģĵ": 6787,
      "éī´å®ļ": 6788,
      "çŃĽ": 6789,
      "æıī": 6790,
      "å½ĵåĪĿ": 6791,
      "åķĨåľº": 6792,
      "çģ«è½¦": 6793,
      "èŃ¦åĳĬ": 6794,
      "éķľå¤´": 6795,
      "æµĳ": 6796,
      "æĢĿè·¯": 6797,
      "ä¸ºæŃ¤": 6798,
      "æĭ¾": 6799,
      "å¤ĦçļĦ": 6800,
      "1992": 6801,
      "å·®è·Ŀ": 6802,
      "çŁ¥è¯Ĩäº§æĿĥ": 6803,
      "è¯ŃéŁ³": 6804,
      "å¾®è½¯": 6805,
      "æľ¬ä¹¦": 6806,
      "åĿ¤": 6807,
      "éĶĪ": 6808,
      "æİ§èĤ¡": 6809,
      "è£¸ä½ĵ": 6810,
      "åĽ¾ä¹¦é¦Ĩ": 6811,
      "åĵĢ": 6812,
      "æ±°": 6813,
      "æĽ´é«ĺ": 6814,
      "åĽ¾åĥı": 6815,
      "çļĦåĨħ": 6816,
      "è¾±": 6817,
      "åŃĲéĩĮ": 6818,
      "ç¾İå®¹": 6819,
      "äººåĴĮ": 6820,
      "çŃĭ": 6821,
      "åħ¨å¹´": 6822,
      "5000": 6823,
      "å¹¶å°Ĩ": 6824,
      "èī²åĪĹ": 6825,
      "ç£ģåĬĽ": 6826,
      "ä¸Ģæī¹": 6827,
      "åĲİç»Ń": 6828,
      "æķĻèĤ²éĥ¨": 6829,
      "çĽ¸åºĶçļĦ": 6830,
      "åıĳçļĦ": 6831,
      "çŃīåľ°": 6832,
      "æ·Ģ": 6833,
      "äºīåıĸ": 6834,
      "ä¾ĿéĿł": 6835,
      "èĵ¬": 6836,
      "DP": 6837,
      "åŁĶ": 6838,
      "ç¨»": 6839,
      "åıĳçĶŁäºĨ": 6840,
      "éļĶç¦»": 6841,
      "App": 6842,
      "æĪĲæķĪ": 6843,
      "1991": 6844,
      "åħ»èĢģéĩĳ": 6845,
      "ly": 6846,
      "Ġäººåı£": 6847,
      "ä¸ľéĥ¨": 6848,
      "èĬ±åĽŃ": 6849,
      "åĬ©äºİ": 6850,
      "åĩ¸": 6851,
      "å¹´åĲİ": 6852,
      "åĴĮç¤¾ä¼ļ": 6853,
      "åıĳæĶ¾": 6854,
      "æľįåĬ¡çļĦ": 6855,
      "åį¦": 6856,
      "è¶ħå¸Ĥ": 6857,
      "æŃī": 6858,
      "uc": 6859,
      "çļĦåħ³ç³»": 6860,
      "è®¼": 6861,
      "åħ¬å¯ĵ": 6862,
      "åĸľæ¬¢çļĦ": 6863,
      "åĺīå®¾": 6864,
      "oh": 6865,
      "æŀ¢": 6866,
      "å½ĵä»£": 6867,
      "æŃ¥éª¤": 6868,
      "èĤ¡ä»·": 6869,
      "ãĥ»": 6870,
      "åįłé¢Ĩ": 6871,
      "SM": 6872,
      "ĠÐ": 6873,
      "çĪ¹": 6874,
      "äº²èĩª": 6875,
      "æĺı": 6876,
      "å¸Ĩ": 6877,
      "è®¾è®¡å¸Ī": 6878,
      "æ¾¡": 6879,
      "èĪªå¤©": 6880,
      "ç¬¬ä¸īæĸ¹": 6881,
      "æļĤæĹ¶": 6882,
      "æĸ°èĥ½æºĲæ±½è½¦": 6883,
      "æĿł": 6884,
      "ç§ĳåŃ¦å®¶": 6885,
      "çĭłçĭł": 6886,
      "opyright": 6887,
      "ä¸įçĦ¶": 6888,
      "å½ĵéĢī": 6889,
      "æ°´çļĦ": 6890,
      "èŀįåħ¥": 6891,
      "æĺ¯ä¸Ģæ¬¾": 6892,
      "å¼ĢéĢļ": 6893,
      "æĶ¶èİ·": 6894,
      "are": 6895,
      "çļĦçĽ®æłĩ": 6896,
      "ä¸ŃåĽ½å¤§éĻĨ": 6897,
      "åĭĭ": 6898,
      "ç©¿è¶Ĭ": 6899,
      "æķıæĦŁ": 6900,
      "ä¸Ģæµģ": 6901,
      "å¸¸è§Ħ": 6902,
      "æľªç»ı": 6903,
      "ç¼ĸçłģ": 6904,
      "éģĹäº§": 6905,
      "åĨĴéĻ©": 6906,
      "åİŁæĸĻ": 6907,
      "æ³¨æĺİ": 6908,
      "æĿ¡çº¦": 6909,
      "ĠåİĨåı²": 6910,
      "æ³¢åħ°": 6911,
      "éľ²åĩº": 6912,
      "è°Ń": 6913,
      "çľģçº§": 6914,
      "æłĳç«ĭ": 6915,
      "å»¶ç»Ń": 6916,
      "çĶ¢": 6917,
      "ä»ĬåĲİ": 6918,
      "æķĪçĽĬ": 6919,
      "éķ·": 6920,
      "ç¾İåĨĽ": 6921,
      "ä¸Ģä¸ªæľĪ": 6922,
      "åķĨæłĩ": 6923,
      "æĶ¹éĿ©å¼ĢæĶ¾": 6924,
      "å¤Ħç½®": 6925,
      "è½»è½»": 6926,
      "è¿ĩäºİ": 6927,
      "æ¿Ģåħī": 6928,
      "pt": 6929,
      "è´¼": 6930,
      "åĽŀåİ»": 6931,
      "è¯ģå®ŀ": 6932,
      "å£«åħµ": 6933,
      "çĶµæ¢¯": 6934,
      "çĥ¯": 6935,
      "ä¸ĩåĲ¨": 6936,
      "å±ĤéĿ¢": 6937,
      "å¸®å¿Ļ": 6938,
      "æ©¡": 6939,
      "éĹ¯": 6940,
      "åĵĩ": 6941,
      "æĹ¥çĽĬ": 6942,
      "èĤ¡å¸Ĥ": 6943,
      "è¯ĬæĸŃ": 6944,
      "å·¥ä¼ļ": 6945,
      "éķ¿æĺ¥": 6946,
      "åĪĿæŃ¥": 6947,
      "é¢ł": 6948,
      "åıĳè¾¾": 6949,
      "æľ¬è´¨": 6950,
      "ial": 6951,
      "æĺ¯è°ģ": 6952,
      "ä»¥å¾Ģ": 6953,
      "iPhone": 6954,
      "Ġ20": 6955,
      "å®¶ä¸Ń": 6956,
      "å¿ĺè®°": 6957,
      "å¹¼åĦ¿åĽŃ": 6958,
      "éĢ¾": 6959,
      "åĪ°æĿ¥": 6960,
      "æīĢéľĢ": 6961,
      "è¿Ļä¹Ł": 6962,
      "ä¸īåįģ": 6963,
      "èĪĨ": 6964,
      "æľ¬ç½ĳ": 6965,
      "æ¶©": 6966,
      "åįİçĽĽ": 6967,
      "åºĹéĵº": 6968,
      "æĸ¥": 6969,
      "ä¸ĢåĲĮ": 6970,
      "å¤§å®¶éĥ½": 6971,
      "åľ°è¯´": 6972,
      "èµĽè½¦": 6973,
      "æķĳæı´": 6974,
      "æĬĦ": 6975,
      "åı£äº¤": 6976,
      "ç¿ģ": 6977,
      "åľŁèĢ³": 6978,
      "çļĦæ¸¸æĪı": 6979,
      "æĮ£": 6980,
      "èĪĩ": 6981,
      "æĲı": 6982,
      "çļĦåħī": 6983,
      "ä¸Ģäºº": 6984,
      "æĪĳä»¬è¦ģ": 6985,
      "æĮĩç¤º": 6986,
      "æ¶ĪéĻ¤": 6987,
      "åĲĮæľŁ": 6988,
      "åĪĳäºĭ": 6989,
      "ç«ĭåľº": 6990,
      "å¤§ä½¿": 6991,
      "åĢĳ": 6992,
      "æĶ¾å¿ĥ": 6993,
      "å¯¼å¸Ī": 6994,
      "èģĮä½į": 6995,
      "èĭıå·ŀ": 6996,
      "ä¹Ķæ²»": 6997,
      "å©´åĦ¿": 6998,
      "æĮª": 6999,
      "å±±åĮº": 7000,
      "çĹħæĥħ": 7001,
      "ç»ĥä¹ł": 7002,
      "çĶĺèĤĥ": 7003,
      "åľŁèĢ³åħ¶": 7004,
      "æľīåı¯èĥ½": 7005,
      "çĲĨäºĭ": 7006,
      "äºĮæ¬¡": 7007,
      "åŃĹå¹ķ": 7008,
      "éĥ¨èĲ½": 7009,
      "å¥¢": 7010,
      "çŃ¾çº¦": 7011,
      "å®¾é¦Ĩ": 7012,
      "çļĦåŃ¦çĶŁ": 7013,
      "ä¹°åįĸ": 7014,
      "è¡Ģæ¶²": 7015,
      "æĸĮ": 7016,
      "ä¸Ģå¤§": 7017,
      "å¯¹æĬĹ": 7018,
      "ä¾¨": 7019,
      "ä¸īåĽ½": 7020,
      "ä¾ĽåºĶåķĨ": 7021,
      "çľŁçĽ¸": 7022,
      "çĶ¸": 7023,
      "åĲĦå¤§": 7024,
      "ãģ§": 7025,
      "æĸĹäºī": 7026,
      "èªĵ": 7027,
      "å¯»æ±Ĥ": 7028,
      "åīįè¿Ľ": 7029,
      "å¸¦æľī": 7030,
      "åĳ½åĲį": 7031,
      "åŃ©åŃĲä»¬": 7032,
      "èĥ½åĲ¦": 7033,
      "ç§įç±»": 7034,
      "åŁŁåĲį": 7035,
      "è¿İæĿ¥": 7036,
      "ãĥĪ": 7037,
      "çŃĸåĪĴ": 7038,
      "å¤ĸè§Ĥ": 7039,
      "åĪ¶åĵģ": 7040,
      "å¥¥æĸ¯": 7041,
      "å¤§å¥ĸ": 7042,
      "å¤©åľ°": 7043,
      "åĵĪå°Ķ": 7044,
      "éĺ¶çº§": 7045,
      "ä½ĽæķĻ": 7046,
      "æ¡Ĳ": 7047,
      "ä¼łæŁĵ": 7048,
      "åıįå¤į": 7049,
      "åį¿": 7050,
      "1994": 7051,
      "åįİçĽĽé¡¿": 7052,
      "èįĨ": 7053,
      "é£ŁçĶ¨": 7054,
      "å´İ": 7055,
      "ä¼¯çī¹": 7056,
      "è¼ī": 7057,
      "ä»¥èī²åĪĹ": 7058,
      "æħĮ": 7059,
      "éĺ³å¸Ĥ": 7060,
      "è¸¢": 7061,
      "idae": 7062,
      "æľĪåĪĿ": 7063,
      "ç¾İèģĶ": 7064,
      "è¿ĺå°Ĩ": 7065,
      "å¸¸å§Ķ": 7066,
      "åĪĿæľŁ": 7067,
      "çļĦä¸ĸçķĮ": 7068,
      "èĤĽ": 7069,
      "çĦĬ": 7070,
      "éļ¾é¢ĺ": 7071,
      "1995": 7072,
      "çļ±": 7073,
      "ä¹Łè¢«": 7074,
      "çĲĥè¿·": 7075,
      "åĮ»å¸Ī": 7076,
      "åħ´å¥ĭ": 7077,
      "ç§ĳæĬĢæľīéĻĲåħ¬åı¸": 7078,
      "åįĢ": 7079,
      "ä¸Ńç¾İ": 7080,
      "æĸ¹ä½į": 7081,
      "æĺİå¤©": 7082,
      "ge": 7083,
      "åıĪæĺ¯": 7084,
      "Ġ14": 7085,
      "æ°ĳèŃ¦": 7086,
      "æĿĢäºº": 7087,
      "åģ¶åĥı": 7088,
      "çĶµè·¯": 7089,
      "å¤ĦåĪĨ": 7090,
      "çī¹å®ļ": 7091,
      "èĤª": 7092,
      "å½ķåıĸ": 7093,
      "å¯¹æİ¥": 7094,
      "æīĭæĮĩ": 7095,
      "åī¯ä¸»å¸Ń": 7096,
      "å¯¦": 7097,
      "è¯´äºĨ": 7098,
      "åĽĽå¹´": 7099,
      "ä»¥å¤ĸ": 7100,
      "æĶ¿æĿĥ": 7101,
      "åİĺ": 7102,
      "æĬķè¯ī": 7103,
      "ä¸įåıĺ": 7104,
      "éĿĸ": 7105,
      "äºĮçº§": 7106,
      "æ´»åĬ¨çļĦ": 7107,
      "æĦī": 7108,
      "ith": 7109,
      "æºĥ": 7110,
      "æĻ®åıĬ": 7111,
      "æīĢè°ĵçļĦ": 7112,
      "èĶ¬èıľ": 7113,
      "çļĦå°±æĺ¯": 7114,
      "ä¸įå¼Ģ": 7115,
      "æĭ¿åĪ°": 7116,
      "åĪĨç¦»": 7117,
      "åĮł": 7118,
      "åıªå¥½": 7119,
      "å¼Łå¼Ł": 7120,
      "å¯¿åĳ½": 7121,
      "äººä¸º": 7122,
      "å¤©æĸĩ": 7123,
      "ãģ¾": 7124,
      "è¿Ļä¸ĢçĤ¹": 7125,
      "Â©": 7126,
      "Ã©": 7127,
      "Ġ>": 7128,
      "å¼ºåĪ¶": 7129,
      "ä¾µçĬ¯": 7130,
      "å¾Į": 7131,
      "å¤ĸéĿ¢": 7132,
      "çģµéŃĤ": 7133,
      "åĢºåĪ¸": 7134,
      "æ¶ĪèĢĹ": 7135,
      "å½¢æĪĲäºĨ": 7136,
      "çªĹåı£": 7137,
      "èĦĤèĤª": 7138,
      "âĹı": 7139,
      "æĹ¥æĻļ": 7140,
      "oun": 7141,
      "ç»¼èīº": 7142,
      "ç¬ĶèĢħ": 7143,
      "é»ĳæļĹ": 7144,
      "ä¸Ĭæµ·å¸Ĥ": 7145,
      "æĽ´å¥½åľ°": 7146,
      "åĪĽå§ĭäºº": 7147,
      "ãĢģâĢľ": 7148,
      "çķĮéĿ¢": 7149,
      "æĶ¯éĥ¨": 7150,
      "è¯īè®¼": 7151,
      "è³ĩ": 7152,
      "çĦ¡": 7153,
      "åħļä¸Ńå¤®": 7154,
      "äº¬ä¸ľ": 7155,
      "åĨĻä½ľ": 7156,
      "æĮĳéĢī": 7157,
      "AèĤ¡": 7158,
      "ä¿±": 7159,
      "åħ¨èº«": 7160,
      "æ·ĳ": 7161,
      "WW": 7162,
      "åľ¨ä¸Ģä¸ª": 7163,
      "äº§èĥ½": 7164,
      "æĪĺå£«": 7165,
      "åĲĥçļĦ": 7166,
      "åĨľäº§åĵģ": 7167,
      "äºıæįŁ": 7168,
      "ä¸Ģåıª": 7169,
      "è¿Ļéĥ¨": 7170,
      "é¾Ł": 7171,
      "Ġä½įç½®": 7172,
      "åīįåĲİ": 7173,
      "ä»»æľŁ": 7174,
      "è±¹": 7175,
      "ä¹Łåı¯": 7176,
      "åĳĬçŁ¥": 7177,
      "æĻ¯è§Ĥ": 7178,
      "èµ¶ç´§": 7179,
      "èĢģèĻİæľº": 7180,
      "ä¸Ľ": 7181,
      "åº¦åģĩ": 7182,
      "ä½Ĩä»ĸ": 7183,
      "åįĹæµ·": 7184,
      "ach": 7185,
      "æĻĥ": 7186,
      "è®¾å®ļ": 7187,
      "åİŁæ²¹": 7188,
      "!!!": 7189,
      "èĨı": 7190,
      "æĹ¶æĬ¥": 7191,
      "ãĥª": 7192,
      "å¥ĩæĢª": 7193,
      "ash": 7194,
      "èµĶåģ¿": 7195,
      "çĤ¹å¤´": 7196,
      "æīĭä¸Ń": 7197,
      "éħ¬": 7198,
      "éĺ¿å§¨": 7199,
      "ç¢±": 7200,
      "ç¬¬åħ«": 7201,
      "æ²Ļçī¹": 7202,
      "å¹¿ä¸ľçľģ": 7203,
      "ä»¿ä½Ľ": 7204,
      "ä¸įè¡Į": 7205,
      "çĶ¨éĢĶ": 7206,
      "æĻķ": 7207,
      "éĵģéģĵ": 7208,
      "å¤ļä¹ħ": 7209,
      "å¾ħéģĩ": 7210,
      "æ´Ĵ": 7211,
      "èĩªè§ī": 7212,
      "åĪĽç«ĭ": 7213,
      "é¹¤": 7214,
      "æĢĢåŃķ": 7215,
      "çļĦå¥³": 7216,
      "åīįæĻ¯": 7217,
      "ç¼¸": 7218,
      "çĻ¾ç§ĳ": 7219,
      "html": 7220,
      "å¸¦æĿ¥äºĨ": 7221,
      "ä¹ĭæīĢä»¥": 7222,
      "ç²¹": 7223,
      "åħ¨åĽ½äººå¤§": 7224,
      "éĺŁåĳĺ": 7225,
      "æĬĵä½ı": 7226,
      "ä¹Łä¸įæĺ¯": 7227,
      "èĬ¦": 7228,
      "å®ĮæĪĲäºĨ": 7229,
      "ä¸¥éĩįçļĦ": 7230,
      "åĿĿ": 7231,
      "åħļç»Ħ": 7232,
      "æĸ¯æĭī": 7233,
      "åįķçĭ¬": 7234,
      "èĬĤèĥ½": 7235,
      "å±ĢéĿ¢": 7236,
      "åĸľæ¬¢ä¸įè¦ģéĶĻè¿ĩ": 7237,
      "èĤĮèĤī": 7238,
      "ock": 7239,
      "ä»İæŃ¤": 7240,
      "æ¸ħçĲĨ": 7241,
      "åĨħå¿ĥ": 7242,
      "è¯Ŀé¢ĺ": 7243,
      "æ¬§åħĥ": 7244,
      "éĵ¸": 7245,
      "èĪŀè¹Ī": 7246,
      "ĠâĢĵ": 7247,
      "æĶĢ": 7248,
      "åħ¶ä½Ļ": 7249,
      "1980": 7250,
      "æĶ¿åħļ": 7251,
      "çģ«éĶħ": 7252,
      "æ®µæĹ¶éĹ´": 7253,
      "å¹³çŃī": 7254,
      "è¯¥åħ¬åı¸": 7255,
      "èµ°åĪ°": 7256,
      "åĩĮæĻ¨": 7257,
      "ä¸Ģå¸¦ä¸Ģè·¯": 7258,
      "èĮħ": 7259,
      "çļĦä¸ĢåĪĩ": 7260,
      "1993": 7261,
      "åŃĶåŃĲ": 7262,
      "å¦¨": 7263,
      "è¿ĽäºĨ": 7264,
      "èİŀ": 7265,
      "å¤ĩæ³¨": 7266,
      "å®³æĢķ": 7267,
      "è¯¢éĹ®": 7268,
      "è«": 7269,
      "åŃĲä¸Ĭ": 7270,
      "æ¯Ķçī¹": 7271,
      "åı¤å»ºçŃĳ": 7272,
      "ä¾ĭåŃĲ": 7273,
      "ä¹ħä¹ħ": 7274,
      "åĲģ": 7275,
      "å½ĵä½ł": 7276,
      "åı¯ä»¥éĢļè¿ĩ": 7277,
      "çłĶè®¨": 7278,
      "æĬ«éľ²": 7279,
      "æįī": 7280,
      "çľĭåĪ°äºĨ": 7281,
      "å°Ķå¾·": 7282,
      "èģļéĽĨ": 7283,
      "ä¸ĬåįĬå¹´": 7284,
      "è´Łæĭħ": 7285,
      "pr": 7286,
      "è¿Ļé¡¹": 7287,
      "ä½ĵä¼ļ": 7288,
      "çĶµç¼Ĩ": 7289,
      "äºĶä¸ª": 7290,
      "è¡Ģç®¡": 7291,
      "éĢ¼éĢ¼": 7292,
      "èį£èĢĢ": 7293,
      "çļĦç²¾ç¥ŀ": 7294,
      "åĬ¨çļĦ": 7295,
      "éĻĨåĨĽ": 7296,
      "åºĨç¥Ŀ": 7297,
      "Ġå¹³": 7298,
      "Ġ13": 7299,
      "å¤§ç§Ģ": 7300,
      "éĩĳçīĽ": 7301,
      "æĸ¯åŁº": 7302,
      "éºŁ": 7303,
      "è¯ļä¿¡": 7304,
      "ç«ŀäºīåĬĽ": 7305,
      "çºº": 7306,
      "å¸ĤåĮº": 7307,
      "az": 7308,
      "çļĦåħ¬åı¸": 7309,
      "è¾ĥé«ĺ": 7310,
      "å¤·": 7311,
      "æłª": 7312,
      "åı¸ä»¤": 7313,
      "æĵħ": 7314,
      "çĲ¼": 7315,
      "æĹ¥éŁ©": 7316,
      "éĤ£æĺ¯": 7317,
      "æĭįçħ§": 7318,
      "Ġ--": 7319,
      "æĦıå¿Ĺ": 7320,
      "æĬ¥ä»·": 7321,
      "âĹİ": 7322,
      "åı¯èĥ½æĢ§": 7323,
      "æ¸©æ³ī": 7324,
      "æŁĲç§į": 7325,
      "èĤĮèĤ¤": 7326,
      "ä¸ŃåĽ½çī¹èī²ç¤¾ä¼ļä¸»ä¹ī": 7327,
      "éĥĬ": 7328,
      "åģ¥åħ¨": 7329,
      "ure": 7330,
      "123": 7331,
      "å¢ħ": 7332,
      "æīĵçĶµè¯Ŀ": 7333,
      "ug": 7334,
      "éĩįæĴŃ": 7335,
      "éĩįå¤į": 7336,
      "ç¼ħ": 7337,
      "åįĹåĮĹ": 7338,
      "å¸Ĥåľºä¸Ĭ": 7339,
      "è¸©": 7340,
      "æĺ¯ä¸ºäºĨ": 7341,
      "æĥ¹": 7342,
      "æĽ´å¤§": 7343,
      "åĸľçĪ±": 7344,
      "ust": 7345,
      "æĸ°çĶŁ": 7346,
      "è®¤çŁ¥": 7347,
      "ãģ«": 7348,
      "è´§çī©": 7349,
      "å¹¶äºİ": 7350,
      "æķĻä¼ļ": 7351,
      "eng": 7352,
      "æ½Ń": 7353,
      "ace": 7354,
      "å¢ŀåĬłäºĨ": 7355,
      "è¾Ĳå°Ħ": 7356,
      "å¬": 7357,
      "æĺ¯éĿŀå¸¸": 7358,
      "çī¡": 7359,
      "è¥¿åĵ¥": 7360,
      "çİĭåĽ½": 7361,
      "åĨħè¡£": 7362,
      "ãĤĭ": 7363,
      "åŃĺåľ¨çļĦ": 7364,
      "éģµå®Ī": 7365,
      "ä¼ļéķ¿": 7366,
      "éĿ¢è¯ķ": 7367,
      "çĹ´": 7368,
      "ite": 7369,
      "èµĦæĸĻæĿ¥æºĲ": 7370,
      "çļĦæīĢæľī": 7371,
      "1989": 7372,
      "æĽ¿ä»£": 7373,
      "æĪĳä¼ļ": 7374,
      "åįİäºº": 7375,
      "æĩĤå¾Ĺ": 7376,
      "çļĦç»ıæµİ": 7377,
      "å½¦": 7378,
      "ä»İæľª": 7379,
      "ä¹ĭæĹħ": 7380,
      "å®īåįĵ": 7381,
      "éĺ²å¾¡": 7382,
      "æŃ»äºĨ": 7383,
      "åĨĻçļĦ": 7384,
      "ç£Ĭ": 7385,
      "ç¨ĭåº¦ä¸Ĭ": 7386,
      "æ·ĺæ±°": 7387,
      "åĽ½æ°ĳåħļ": 7388,
      "æ¸Ĭ": 7389,
      "æĹłå¥Ĺ": 7390,
      "æĮģæľī": 7391,
      "GB": 7392,
      "æģĭçĪ±": 7393,
      "ç¼ĵè§£": 7394,
      "Ġä¸ŃåĽ½": 7395,
      "ä¸įå¤§": 7396,
      "è¦ģæľī": 7397,
      "åĮĸå·¥": 7398,
      "å½ĵå±Ģ": 7399,
      "1080": 7400,
      "éļ¾éģĵ": 7401,
      "è½¿": 7402,
      "åĬłæ²¹": 7403,
      "ãģ¨": 7404,
      "é¢Ħçº¦": 7405,
      "è®¾è®¡çļĦ": 7406,
      "æ°¸ä¹ħ": 7407,
      "åĥıæĺ¯": 7408,
      "ä½ľæĽ²": 7409,
      "éĥ½æ²¡": 7410,
      "å®ŀä¹ł": 7411,
      "åĲĪæĪĲ": 7412,
      "éĢļçĶ¨": 7413,
      "åİīå®³": 7414,
      "æĪļ": 7415,
      "ä¸ĭæ»ĳ": 7416,
      "éĽĢ": 7417,
      "æĹłçĸĳ": 7418,
      "çĭ¬çī¹çļĦ": 7419,
      "äºĨåĩł": 7420,
      "ç¾İä¹³": 7421,
      "æ¸ħçº¯": 7422,
      "ãĤ¢": 7423,
      "å·´å£«": 7424,
      "ens": 7425,
      "å¤įåĪ¶": 7426,
      "çĳ¶": 7427,
      "å«Įçĸĳ": 7428,
      "ç»Īç«¯": 7429,
      "æ¾³æ´²": 7430,
      "æİ¥åĪ°": 7431,
      "åĪĽåĬŀ": 7432,
      "èīºäºº": 7433,
      "æĭĽåķĨ": 7434,
      "ide": 7435,
      "è¯¸å¤ļ": 7436,
      "Ġ...": 7437,
      "åĪ®": 7438,
      "è·¯æĺĵ": 7439,
      "å¸ĪèĮĥ": 7440,
      "æĿ¡æ¬¾": 7441,
      "æŀ¶æŀĦ": 7442,
      "çļĦçļĦ": 7443,
      "éĺĲ": 7444,
      "å°ıåŀĭ": 7445,
      "å¸¸å§Ķä¼ļ": 7446,
      "åĲ«éĩı": 7447,
      "ä¾į": 7448,
      "çķľ": 7449,
      "ä¸īäºº": 7450,
      "åı²ä¸Ĭ": 7451,
      "ä¼Ĭæĭīåħĭ": 7452,
      "çļĦç»ĵæŀľ": 7453,
      "ç¼ł": 7454,
      "ç»ĵæĿŁåĲİ": 7455,
      "æĮĸæİĺ": 7456,
      "å°±è¢«": 7457,
      "å¼Ģåħ³": 7458,
      "æĪ¿äº§": 7459,
      "ç¡®è¯Ĭ": 7460,
      "hu": 7461,
      "åľ°æĿ¿": 7462,
      "ä¸īæĺ¯": 7463,
      "ç§¯éĩĳ": 7464,
      "åĵįåºĶ": 7465,
      "äººæĸĩ": 7466,
      "è¿Ļåľº": 7467,
      "ä¹ĭå¤Ħ": 7468,
      "éĸĵ": 7469,
      "order": 7470,
      "çļĦåŁºç¡Ģä¸Ĭ": 7471,
      "åıĺæĪĲäºĨ": 7472,
      "çİĩåħĪ": 7473,
      "å¹³æĸ¹åħ¬éĩĮ": 7474,
      "åİŁæłĩé¢ĺ": 7475,
      "åıĸå¾ĹäºĨ": 7476,
      "Al": 7477,
      "ä¹ĸ": 7478,
      "å·«": 7479,
      "åĨįåĬłä¸Ĭ": 7480,
      "çķĻåľ¨": 7481,
      "åį°åĪ·": 7482,
      "Ġåīį": 7483,
      "æº¯": 7484,
      "éĺŁéķ¿": 7485,
      "ä»ĸä»¬åľ¨": 7486,
      "é¾Ļæ±Ł": 7487,
      "è´ŀ": 7488,
      "å®ŀçĶ¨": 7489,
      "æĶ¾æĿ¾": 7490,
      "æĩĴ": 7491,
      "å¾Īæĺ¯è¯±æĥĳåĸľæ¬¢ä¸įè¦ģéĶĻè¿ĩ": 7492,
      "éĥ½è¢«": 7493,
      "çĿĢåĬĽ": 7494,
      "éĴ¦": 7495,
      "å®¢äºº": 7496,
      "éĶ»çĤ¼": 7497,
      "è¡·": 7498,
      "åĽ½ç«ĭ": 7499,
      "éĹ¸": 7500,
      "æĶ¯æı´": 7501,
      "ä¼ĺçĤ¹": 7502,
      "æĲħ": 7503,
      "ä¸°æ»¡": 7504,
      "åį·ç¬¬": 7505,
      "æĬµè¾¾": 7506,
      "å¤§çīĩ": 7507,
      "å®¢è§Ĥ": 7508,
      "é«ĺæīĭ": 7509,
      "æī¿åıĹ": 7510,
      "æĲŃå»º": 7511,
      "ä¸Ģä»¶": 7512,
      "ç»Ħå»º": 7513,
      "åľ¨çº¿æĴŃæĶ¾": 7514,
      "åįłæį®": 7515,
      "çĶµåŃĲåķĨåĬ¡": 7516,
      "å¤ļå°ĳéĴ±": 7517,
      "çķĻè¨Ģ": 7518,
      "åįĪå¤ľ": 7519,
      "ä¸įä»ħä»ħ": 7520,
      "åħ¬ç§¯éĩĳ": 7521,
      "çŃīéĹ®é¢ĺ": 7522,
      "çľĭåĩº": 7523,
      "åĬŁå¤«": 7524,
      "ç¨İåĬ¡": 7525,
      "her": 7526,
      "äººä¸İ": 7527,
      "å°ĨæĿ¥": 7528,
      "é¥®æĸĻ": 7529,
      "çºłçº·": 7530,
      "å¤§èĥĨ": 7531,
      "å¤§åİ¦": 7532,
      "è¦ģç´ł": 7533,
      "å¤ªç©º": 7534,
      "çĿ¡è§ī": 7535,
      "Ð¸": 7536,
      "éľ¹": 7537,
      "é¡¹çĽ®çļĦ": 7538,
      "å®ĺæĸ¹ç½ĳç«Ļ": 7539,
      "ies": 7540,
      "çļĦè¿ĩç¨ĭ": 7541,
      "ä¸Ģéģĵ": 7542,
      "ä¸ĬæĿ¥": 7543,
      "ment": 7544,
      "åĨħè£¤": 7545,
      "åĳ¨æľ«": 7546,
      "å¾®ç¬ĳ": 7547,
      "æ¿Ģåıĳ": 7548,
      "éĶ¦æłĩ": 7549,
      "ä¼łæĦŁ": 7550,
      "åıĹæ¬¢è¿İ": 7551,
      "æķ°æį®åºĵ": 7552,
      "ç¾Ĭåº§": 7553,
      "éĽ³": 7554,
      "ç¡«": 7555,
      "åķĨåºĹ": 7556,
      "å¤ĩæ¡Ī": 7557,
      "gle": 7558,
      "åĪĿå¿ĥ": 7559,
      "ision": 7560,
      "å¢¨è¥¿åĵ¥": 7561,
      "å¿½çĦ¶": 7562,
      "æ¿ĢåĬ±": 7563,
      "åĪĨåĪ«ä¸º": 7564,
      "å¸¸è§ģçļĦ": 7565,
      "è´¯å½»èĲ½å®ŀ": 7566,
      "ax": 7567,
      "èµĲ": 7568,
      "åīįæľŁ": 7569,
      "ä½łè¦ģ": 7570,
      "åĮĹæĸ¹": 7571,
      "èĬĤå¥ı": 7572,
      "AD": 7573,
      "ľé£İ": 7574,
      "é«ĺå³°": 7575,
      "ç¦ħ": 7576,
      "äºĨåĲĹ": 7577,
      "çļĦæ°Ķ": 7578,
      "æĸ°åħ´": 7579,
      "æĪıåī§": 7580,
      "ä¸Ģå¯¹": 7581,
      "è§£è¯»": 7582,
      "é¢ĳçİĩ": 7583,
      "é¥ŃåºĹ": 7584,
      "aw": 7585,
      "çļĦä¸¤": 7586,
      "çĽ¯": 7587,
      "ä¹ĭéĻħ": 7588,
      "è´¨çĸĳ": 7589,
      "æŃĮåī§": 7590,
      "è¿Ļæĺ¯ä¸Ģä¸ª": 7591,
      "æµªè´¹": 7592,
      "ç¥Ŀç¦ı": 7593,
      "è¿ĺä¸į": 7594,
      "åįģåŃĹ": 7595,
      "æĦŁåıĹåĪ°": 7596,
      "è¾¹çļĦ": 7597,
      "åį¡å°Ķ": 7598,
      "è´µçļĦ": 7599,
      "å»ºç«ĭäºĨ": 7600,
      "Ġä¸į": 7601,
      "éĩįéĩı": 7602,
      "èĵī": 7603,
      "å¦ĤåĲĮ": 7604,
      "ç®ĢçĽ´": 7605,
      "æ°¨": 7606,
      "é¢Ĩè¢ĸ": 7607,
      "æ·«èį¡": 7608,
      "âĪĴ": 7609,
      "è®©å¥¹": 7610,
      "åİĭç¼©": 7611,
      "ä¼ĳéĸĴ": 7612,
      "ä¸Ģæ®µæĹ¶éĹ´": 7613,
      "çļĦçĽ¸åħ³": 7614,
      "ç»ıéĶĢåķĨ": 7615,
      "çł´è§£": 7616,
      "ĠæĹ¶": 7617,
      "ä»¥ä¾¿": 7618,
      "é¢Ĩåıĸ": 7619,
      "åŃĺæ¬¾": 7620,
      "æįŁå®³": 7621,
      "éľ¹éĽ³": 7622,
      "rom": 7623,
      "çļĦåħ³éĶ®": 7624,
      "åŀĭåı·": 7625,
      "çļĦä¸ī": 7626,
      "åı¯æĥľ": 7627,
      "åħ¥ä¾µ": 7628,
      "æľŁæľĽ": 7629,
      "ç´ļ": 7630,
      "æĿĲè´¨": 7631,
      "èīºæľ¯å®¶": 7632,
      "èĨĢ": 7633,
      "åıĪæľī": 7634,
      "åı¤åħ¸": 7635,
      "äºĨæĪĳ": 7636,
      "çĶŁæĹ¥": 7637,
      "åħ¨æ°ĳ": 7638,
      "åĸĢ": 7639,
      "æ»ŀ": 7640,
      "çľŁçļĦæĺ¯": 7641,
      "åĬŁæķĪ": 7642,
      "å»¶éķ¿": 7643,
      "ction": 7644,
      "åĲµ": 7645,
      "ä¸ĢæĬĬ": 7646,
      "åľ¨åĨħçļĦ": 7647,
      "å¿«çļĦ": 7648,
      "ä¿®æŃ£": 7649,
      "Ġ2019": 7650,
      "çļĦæĶ¯æĮģ": 7651,
      "éĤ±": 7652,
      "æģŃ": 7653,
      "äºĮäºº": 7654,
      "æİ¥æĶ¶": 7655,
      "æĦŁåĬ¨": 7656,
      "å¤ĩçĶ¨": 7657,
      "éĺ²æ²»": 7658,
      "å¹»æĥ³": 7659,
      "æľīæĹ¶åĢĻ": 7660,
      "è¾Ł": 7661,
      "åĲİèĢħ": 7662,
      "æ¯ıåĳ¨": 7663,
      "æĹ©å°±": 7664,
      "å¨ģå°¼æĸ¯": 7665,
      "çĸĳéĹ®": 7666,
      "åŃķå¦ĩ": 7667,
      "åĿł": 7668,
      "åľºåľ°": 7669,
      "è¥¿åħ°": 7670,
      "åı£ç½©": 7671,
      "åĢĻéĢī": 7672,
      "éĢĤçĶ¨äºİ": 7673,
      "è±ªåįİ": 7674,
      "åī¥": 7675,
      "ä½ľé£İ": 7676,
      "é¡¿æĹ¶": 7677,
      "å¡ŀå°Ķ": 7678,
      "èİ¹": 7679,
      "ary": 7680,
      "ç²®é£Ł": 7681,
      "å±¯": 7682,
      "å¾ĹçŁ¥": 7683,
      "SU": 7684,
      "ä¸ĢåįĬ": 7685,
      "æĬ¥çº¸": 7686,
      "è½¬åĲĳ": 7687,
      "åĪļæīį": 7688,
      "åĽ½åĨħå¤ĸ": 7689,
      "ational": 7690,
      "èĩªè¡Įè½¦": 7691,
      "äººåĬĽèµĦæºĲ": 7692,
      "AV": 7693,
      "æ³Į": 7694,
      "è¡Įé©¶": 7695,
      "æİ¨è¡Į": 7696,
      "éĴ¢éĵģ": 7697,
      "æµ´å®¤": 7698,
      "the": 7699,
      "èĲį": 7700,
      "æĦŁåħ´è¶£": 7701,
      "èĬĤæĹ¥": 7702,
      "è¾ħå¯¼": 7703,
      "ile": 7704,
      "çļĦå®īåħ¨": 7705,
      "ä¸Ģéĺµ": 7706,
      "å¤§åľ°": 7707,
      "æĹłéľĢ": 7708,
      "æİ¥åı£": 7709,
      "å·ŀçļĦ": 7710,
      "bl": 7711,
      "è¡¬": 7712,
      "ä¸ĭæĿ¥çļĦ": 7713,
      "ä½łå°±": 7714,
      "çľĭæ³ķ": 7715,
      "ä¼łè¾ĵ": 7716,
      "é©¬å°Ķ": 7717,
      "è©¹å§Ĩæĸ¯": 7718,
      "ample": 7719,
      "ä»¥æŃ¤": 7720,
      "ä¸»å¯¼": 7721,
      "å¥³çİĭ": 7722,
      "åī¯ä¹¦è®°": 7723,
      "é¹ħ": 7724,
      "éļ§": 7725,
      "å¯¹å¾ħ": 7726,
      "å¸ĪçĶŁ": 7727,
      "ç»´çĶŁç´ł": 7728,
      "é«ĺéĵģ": 7729,
      "çķĮçļĦ": 7730,
      "æĽ¾åľ¨": 7731,
      "ä¸Ģçľ¼": 7732,
      "åĩĳ": 7733,
      "ä¸Ģå®ļä¼ļ": 7734,
      "æĶ¿æ²»å±Ģ": 7735,
      "çī²": 7736,
      "æĶ¿åĬ¡": 7737,
      "åĩıèĤ¥": 7738,
      "å¿ĥçģµ": 7739,
      "çº¢åĮħ": 7740,
      "é»ĳäºº": 7741,
      "è±¡å¾ģ": 7742,
      "çĳŀå£«": 7743,
      "éļĲèĹı": 7744,
      "EN": 7745,
      "çĻľé£İ": 7746,
      "è§Ħæł¼": 7747,
      "1988": 7748,
      "éĩįå»º": 7749,
      "èĬ±è´¹": 7750,
      "åł´": 7751,
      "èķ´": 7752,
      "è¿Ļå°±": 7753,
      "æĹłå¥Ī": 7754,
      "çĻ¾åĪĨçĤ¹": 7755,
      "éĥ¨ä½į": 7756,
      "æĪĳä»¬å°Ĩ": 7757,
      "ep": 7758,
      "ä¸ĭè¼ī": 7759,
      "ãģ¡": 7760,
      "åĶ®åĲİ": 7761,
      "æĶ¿æ²»äººçī©": 7762,
      "éĤªæģ¶": 7763,
      "éĩįè¦ģçļĦæĺ¯": 7764,
      "åıĳçİ°äºĨ": 7765,
      "XX": 7766,
      "ä¸įå¯¹": 7767,
      "ä¸ºä¸Ģ": 7768,
      "åĴ³": 7769,
      "æķĻç¨ĭ": 7770,
      "åĬ©çĲĨ": 7771,
      "åŁİå¸ĤçļĦ": 7772,
      "å¤©çĦ¶æ°Ķ": 7773,
      "æĭ¦": 7774,
      "çİ©åħ·": 7775,
      "åĮ¹éħį": 7776,
      "pk": 7777,
      "ä¸ŃåĮ»": 7778,
      "è§Ģ": 7779,
      "æĮĩåįĹ": 7780,
      "æĸĩåĮĸçļĦ": 7781,
      "å¤§äºº": 7782,
      "å½±åĵįåĬĽ": 7783,
      "250": 7784,
      "å¼ŁåŃĲ": 7785,
      "éŃĶæľ¯": 7786,
      "å¤ªå¹³æ´ĭ": 7787,
      "åľ¨æĸ°": 7788,
      "ç¾İæ´²": 7789,
      "æĪ¿ä»·": 7790,
      "å¤įåĲĪ": 7791,
      "âĢĿ;": 7792,
      "æĦıçļĦ": 7793,
      "ç¾¤å²Ľ": 7794,
      "è¯ŀçĶŁ": 7795,
      "ä¸ĢçĶŁ": 7796,
      "éĿ¢ä¸Ĭ": 7797,
      "æ±ĩçİĩ": 7798,
      "oogle": 7799,
      "ĠQ": 7800,
      "ä»Ĩ": 7801,
      "æ²«": 7802,
      "ç¾İäºº": 7803,
      "å·²è¢«": 7804,
      "å°ıéķĩ": 7805,
      "è·¯å¾Ħ": 7806,
      "æİ¢è®¨": 7807,
      "æ¶¨å¹ħ": 7808,
      "ç§ĺä¹¦éķ¿": 7809,
      "%ãĢģ": 7810,
      "aa": 7811,
      "åĩºéĹ¨": 7812,
      "å¼Ģè®¾": 7813,
      "å·´å·´": 7814,
      "åı«åģļ": 7815,
      "éŃĶæ³ķ": 7816,
      "!ãĢį": 7817,
      "Ġæĺ¯": 7818,
      "çļĦè¿ĩç¨ĭä¸Ń": 7819,
      "çĽ¸æľº": 7820,
      "æĶ¶å½ķ": 7821,
      "è¯¾é¢ĺ": 7822,
      "åľ£è¯ŀ": 7823,
      "åİļçļĦ": 7824,
      "ä¼ļåĦ¿": 7825,
      "æ¶¡": 7826,
      "èµ·åĪ°": 7827,
      "å¯¼åĲĳ": 7828,
      "åĪ«å¢ħ": 7829,
      "å®¿èĪį": 7830,
      "çĻ½çĻľé£İ": 7831,
      "ç§ģæĭį": 7832,
      "cl": 7833,
      "å¹´å¼Ģå§ĭ": 7834,
      "åīĸ": 7835,
      "æ²¡æľīä»»ä½ķ": 7836,
      "è¿Ļä¸ªéĹ®é¢ĺ": 7837,
      "130": 7838,
      "ä¸Ģçľĭ": 7839,
      "è¿ĩåº¦": 7840,
      "è¿ĽæĿ¥": 7841,
      "çĽ¸åıį": 7842,
      "æĹ©åľ¨": 7843,
      "çļĦç¡®": 7844,
      "æľīæľĽ": 7845,
      "å®ļäºĨ": 7846,
      "å©¦": 7847,
      "é«ĺéĢŁåħ¬è·¯": 7848,
      "æĹłäººæľº": 7849,
      "ä¸ºå¤§å®¶": 7850,
      "æļĤåģľ": 7851,
      "æĸ°æĬĢæľ¯": 7852,
      "è°¦": 7853,
      "èĤ¿çĺ¤": 7854,
      "çĽ¸åĨĮ": 7855,
      "åĲĪä½ľä¼Ļä¼´": 7856,
      "æķĮäºº": 7857,
      "åĽŀæĬ¥": 7858,
      "é£İæļ´": 7859,
      "çļĦæķĪæŀľ": 7860,
      "åħ¨æĸ°çļĦ": 7861,
      "ç¨®": 7862,
      "æĺ¨æĹ¥": 7863,
      "$\\": 7864,
      "çļĦçĶµå½±": 7865,
      "å¥ł": 7866,
      "ĠåĽ½å®¶": 7867,
      "ä¸įæ»¡": 7868,
      "çĽ¸ç»ĵåĲĪ": 7869,
      "èĦ¾": 7870,
      "çİĽä¸½": 7871,
      "æµıè§ĪåĻ¨": 7872,
      "é¡¶çº§": 7873,
      "åħ¬å®īå±Ģ": 7874,
      "ä½£": 7875,
      "åħļå»º": 7876,
      "ä¸ĸçķĮçļĦ": 7877,
      "åıĳå¸ĥæĹ¶éĹ´": 7878,
      "?ãĢį": 7879,
      "Ð½": 7880,
      "åı¯ä»¥è¯´": 7881,
      "æł¼å¼ı": 7882,
      "èģĮèĥ½": 7883,
      "åĲĮæĹ¶ä¹Ł": 7884,
      "å®ģæ³¢": 7885,
      "Sh": 7886,
      "æĴķ": 7887,
      "ä¾Ŀæīĺ": 7888,
      "è®²è§£": 7889,
      "æ¡ĥåĽŃ": 7890,
      "å°¹": 7891,
      "æ¸£": 7892,
      "æĥħæĬ¥": 7893,
      "å¤ªå¤§": 7894,
      "åį³æĹ¶": 7895,
      "èĸĽ": 7896,
      "OL": 7897,
      "çļĦç¤¾ä¼ļ": 7898,
      "å³»": 7899,
      "ç³Ł": 7900,
      "å¸¸åĬ¡": 7901,
      "çļĦå¤ļ": 7902,
      "ä¸ºä¾ĭ": 7903,
      "ç§ī": 7904,
      "éģĵçļĦ": 7905,
      "éĩįç»Ħ": 7906,
      "æºĲäºİ": 7907,
      "éĺ»æŃ¢": 7908,
      "ĠæĿİ": 7909,
      "éģĵçĲĨ": 7910,
      "æ²³æµģ": 7911,
      "ç²īå«©": 7912,
      "è½°çĤ¸": 7913,
      "èĤ¢": 7914,
      "ä¸İçīĪæĿĥæīĢæľī": 7915,
      "éĤ£å°±": 7916,
      "ç»ıçºª": 7917,
      "æµģéĢļ": 7918,
      "ç¦»å©ļ": 7919,
      "æī«æıı": 7920,
      "ĠæĹ¥æľ¬": 7921,
      "ä¸ŃåįĪ": 7922,
      "æľŁéĻĲ": 7923,
      "çº§åĪ«": 7924,
      "åĨħåľ°": 7925,
      "æ¢³": 7926,
      "è®¤ä¸ºæĺ¯": 7927,
      "ä¸ºä½ł": 7928,
      "å¯¹æĪĳ": 7929,
      "æ³ķåħ°": 7930,
      "å¤ĸåĽ´": 7931,
      "é»ŀ": 7932,
      "700": 7933,
      "äººæ°Ķ": 7934,
      "è¦ģåľ¨": 7935,
      "çħ§æĺİ": 7936,
      "ãĤ«": 7937,
      "ivers": 7938,
      "ç¾İä¸½çļĦ": 7939,
      "å®°": 7940,
      "éķ¿å®ī": 7941,
      "çķı": 7942,
      "äºĮç»´": 7943,
      "çĶ¨æĪ·çļĦ": 7944,
      "/>": 7945,
      "å¸ĥé²ģ": 7946,
      "è®¤åĲĮ": 7947,
      "ãģ£": 7948,
      "ä¸įè®º": 7949,
      "è¡«": 7950,
      "é©¬æĸ¯": 7951,
      "åĥ§": 7952,
      "ĠSh": 7953,
      "?!": 7954,
      "son": 7955,
      "Ġæ°´": 7956,
      "æ¯ıæľĪ": 7957,
      "æĳĶ": 7958,
      "ä¸Ģæ¬¾": 7959,
      "æĪĺåľº": 7960,
      "åįķä¸Ģ": 7961,
      "åıĭå¥½": 7962,
      "åĭ¿": 7963,
      "ç»Ħç»ĩçļĦ": 7964,
      "ä¸ªçĻ¾åĪĨçĤ¹": 7965,
      "çİ°çĬ¶": 7966,
      "åħ±è¯Ĩ": 7967,
      "åĭĻ": 7968,
      "åĵ¥ä¼¦": 7969,
      "CP": 7970,
      "ux": 7971,
      "Ġhttp": 7972,
      "çļĦæľī": 7973,
      "äºĨä»ĸ": 7974,
      "æłĹ": 7975,
      "å¤ļå¹´çļĦ": 7976,
      "åıĺéĿ©": 7977,
      "åľ¨åħ¶": 7978,
      "åİĦ": 7979,
      "å¿ĥèĦı": 7980,
      "æµ·å²¸": 7981,
      "æĹ¨åľ¨": 7982,
      "çļĦå½¢å¼ı": 7983,
      "ä½łè¯´": 7984,
      "åķĨåŁİ": 7985,
      "ç´§å¯Ĩ": 7986,
      "æıĲåĩºçļĦ": 7987,
      "Ġè¿Ļ": 7988,
      "æį§": 7989,
      "çī©èµĦ": 7990,
      "çĹĴ": 7991,
      "é»ĳé¾Ļæ±Ł": 7992,
      "ä»ĺåĩº": 7993,
      "ä¸Ģéĥ¨": 7994,
      "ä¹ĭåĨħ": 7995,
      "ä»İå°ı": 7996,
      "æĪĳä»¬åı¯ä»¥": 7997,
      "åįģè¶³": 7998,
      "çĽĳä¼ļ": 7999,
      "ç¼ºå°ĳ": 8000,
      "äººåĿĩ": 8001,
      "éĴ®": 8002,
      "åĸī": 8003,
      "åı£æ°Ķ": 8004,
      "|+": 8005,
      "æīĢå±ŀ": 8006,
      "æ¬¢ä¹Ĳ": 8007,
      "å¹´èµ·": 8008,
      "æĶ¿åºľçļĦ": 8009,
      "ç«łèĬĤ": 8010,
      "æĨ¾": 8011,
      "æł¡åĮº": 8012,
      "ç¯ĩæĸĩç«ł": 8013,
      "è¶ĬæĿ¥è¶Ĭå¤ļ": 8014,
      "æ¼ĶåĶ±ä¼ļ": 8015,
      "æ³ķæ²»": 8016,
      "å¤®è§Ĩ": 8017,
      "åĪ°ä½į": 8018,
      "æ¯ĶåĪ©": 8019,
      "è¿ŀéĶģ": 8020,
      "çĪĨä¹³": 8021,
      "ä¸Ģæľ¬": 8022,
      "éĢĹ": 8023,
      "å¸ĤçļĦ": 8024,
      "éħĴåĲ§": 8025,
      "å©ļç¤¼": 8026,
      "æŃ£ç¡®çļĦ": 8027,
      "ĠæľĪ": 8028,
      "ä¼ļæīĢ": 8029,
      "æĬ¥èŃ¦": 8030,
      "æ°Ķè±¡": 8031,
      "æ±īè¯Ń": 8032,
      "888": 8033,
      "æİīäºĨ": 8034,
      "åĳĬè¯īè®°èĢħ": 8035,
      "é¢ģå¥ĸ": 8036,
      "é¥²": 8037,
      "åĶ®ä»·": 8038,
      "å¿įä¸įä½ı": 8039,
      "ä¸Ńæĸ°": 8040,
      "å¤§èĩ£": 8041,
      "èµĦæĸĻæĿ¥æºĲä¸İçīĪæĿĥæīĢæľī": 8042,
      "åĴĴ": 8043,
      "å¼Ģæĭĵ": 8044,
      "ä¸ĩä¸ª": 8045,
      "ä¹ĲåĽŃ": 8046,
      "æ½ľåĬĽ": 8047,
      "æ¯«ç±³": 8048,
      "èĺ": 8049,
      "ä¸Ńåĩº": 8050,
      "éĹº": 8051,
      "ä¸Ĭç½ĳ": 8052,
      "è¢«äºº": 8053,
      "ä¸ŃåĽ½äºº": 8054,
      "è¾ĥä½İ": 8055,
      "åıĮæīĭ": 8056,
      "å½±éŁ³åħĪéĶĭ": 8057,
      "çļĦæľĢ": 8058,
      "èĢĮæĿ¥": 8059,
      "å¥³æ¼Ķåĳĺ": 8060,
      "å°Ķçī¹": 8061,
      "æĪªæŃ¢": 8062,
      "çļĦåĪĨ": 8063,
      "åħ³èģĶ": 8064,
      "æİ¥å¾ħ": 8065,
      "çłĶç©¶ä¸Ńå¿ĥ": 8066,
      "ä¼Ĭæĸ¯åħ°": 8067,
      "æ°¯": 8068,
      "ä¸»åľº": 8069,
      "ä¸İåħ¶": 8070,
      "å½ĵä¸ĭ": 8071,
      "ä¹¦ç±į": 8072,
      "è´ŃæĪ¿": 8073,
      "æŁĲä¸ª": 8074,
      "ç¬¦åı·": 8075,
      "Ġby": 8076,
      "Ġçİĭ": 8077,
      "çĶµåı°": 8078,
      "å¢ŀåĢ¼": 8079,
      "åªļ": 8080,
      "åĢ¾åĲĳ": 8081,
      "Ġä¸Ĭä¼ł": 8082,
      "åľ¨ä¸Ń": 8083,
      "ä¸įåĪ©": 8084,
      "åıĳèĤ²": 8085,
      "åĨ³å¿ĥ": 8086,
      "ç¬Ķè®°": 8087,
      "èĪ±": 8088,
      "é¢ĺçĽ®": 8089,
      "çº¦ä¸º": 8090,
      "'s": 8091,
      "``": 8092,
      "tv": 8093,
      "å¼Ģåı£": 8094,
      "åħĭéĩĮæĸ¯": 8095,
      "eserv": 8096,
      "çĽ¸å½ĵäºİ": 8097,
      "example": 8098,
      "èĩªèº«çļĦ": 8099,
      "å¯ŀ": 8100,
      "çŁ¶": 8101,
      "åĮĪ": 8102,
      "éĢ±": 8103,
      "è½¦ä¸»": 8104,
      "é©¬æĭī": 8105,
      "è¯¥å°ıè¡ĮæĺŁ": 8106,
      "åįĳ": 8107,
      "éĹľ": 8108,
      "è£¹": 8109,
      "çĽ´èĩ³": 8110,
      "æŀĦéĢł": 8111,
      "çīĽå¥¶": 8112,
      "åĵģçīĮçļĦ": 8113,
      "æł½": 8114,
      "ä½łåľ¨": 8115,
      "äº¤æĺĵæīĢ": 8116,
      "éº¦åħĭ": 8117,
      "me": 8118,
      "éĤ£ä¸Ģ": 8119,
      "èħķ": 8120,
      "åħ¸ç¤¼": 8121,
      "æĺ¯å¾Ī": 8122,
      "å±¿": 8123,
      "ä¸ĬéĹ¨": 8124,
      "æķĻåłĤ": 8125,
      "æĺĶ": 8126,
      "é¢¤": 8127,
      "å¤ļåĲį": 8128,
      "å®¢è½¦": 8129,
      "ç²¾åĬĽ": 8130,
      "æ±¡æ°´": 8131,
      "çģ¿": 8132,
      "åį³ä¾¿": 8133,
      "åıĤåĬłäºĨ": 8134,
      "çļĦåĬŁèĥ½": 8135,
      "åĽ¾æ¡Ī": 8136,
      "å½¢å®¹": 8137,
      "éħįéŁ³": 8138,
      "ç¾İèģĶåĤ¨": 8139,
      "AL": 8140,
      "çļĦçĥŃ": 8141,
      "éĶĤ": 8142,
      "è¢«åĳĬ": 8143,
      "éĺµå®¹": 8144,
      "æĳĺè¦ģ": 8145,
      "å¤§æ¡¥": 8146,
      "å¤§å°ºåº¦": 8147,
      "åı¯æĮģç»Ń": 8148,
      "ä¸ľèİŀ": 8149,
      "ç¥ŀå¥ĩ": 8150,
      "ç¬¬äºĮå¤©": 8151,
      "è§£æĶ¾åĨĽ": 8152,
      "çļĦçĪ±": 8153,
      "ä¼ļè¢«": 8154,
      "åľ°è´¨": 8155,
      "ä¸»åĬĽ": 8156,
      "éħįä»¶": 8157,
      "æ¸©é¦¨": 8158,
      "è¡¥åĬ©": 8159,
      "ä¸Ńåįİæ°ĳæĹı": 8160,
      "ode": 8161,
      "è¿ĻæĿ¡": 8162,
      "çĦ°": 8163,
      "éħ¯": 8164,
      "éļıä¾¿": 8165,
      "ä»½é¢Ŀ": 8166,
      "act": 8167,
      "æī¯": 8168,
      "è·Łè¸ª": 8169,
      "åĪ¹": 8170,
      "ä¸Ģå¼Ģå§ĭ": 8171,
      "out": 8172,
      "åĳ¼åĲģ": 8173,
      "ç¥ĸåĽ½": 8174,
      "ä¸ĢçĻ¾": 8175,
      "è§Ĥåħī": 8176,
      "éĿĴæµ·": 8177,
      "åĿĩåĮĢ": 8178,
      "ĠPro": 8179,
      "åĢºåĬ¡": 8180,
      "ä¹Łå°±æĺ¯è¯´": 8181,
      "æĸ°äºº": 8182,
      "æķĻæĿĲ": 8183,
      "ç¿ħ": 8184,
      "æ»¥": 8185,
      "åıĹæįŁ": 8186,
      "æķħæĦı": 8187,
      "èĭ¥æĺ¯": 8188,
      "çĳŀåħ¸": 8189,
      "éĢłæĪĲçļĦ": 8190,
      "æīģ": 8191
    },
    "merges": [
      [
        "ä",
        "¸"
      ],
      [
        "ã",
        "Ģ"
      ],
      [
        "ç",
        "ļ"
      ],
      [
        "çļ",
        "Ħ"
      ],
      [
        "ä",
        "º"
      ],
      [
        "æ",
        "ľ"
      ],
      [
        "å",
        "ı"
      ],
      [
        "ãĢ",
        "Ĥ"
      ],
      [
        "å",
        "ħ"
      ],
      [
        "ä",
        "»"
      ],
      [
        "å",
        "¤"
      ],
      [
        "å",
        "®"
      ],
      [
        "å",
        "Ī"
      ],
      [
        "è",
        "¿"
      ],
      [
        "å",
        "ľ"
      ],
      [
        "å",
        "Ĳ"
      ],
      [
        "ä",
        "½"
      ],
      [
        "æ",
        "ĺ"
      ],
      [
        "ç",
        "Ķ"
      ],
      [
        "å",
        "Ľ"
      ],
      [
        "æ",
        "Ī"
      ],
      [
        "ä",
        "¹"
      ],
      [
        "å",
        "°"
      ],
      [
        "å",
        "¹"
      ],
      [
        "æ",
        "Ĺ"
      ],
      [
        "å",
        "Ĭ"
      ],
      [
        "æ",
        "ĸ"
      ],
      [
        "ç",
        "»"
      ],
      [
        "ä¸",
        "Ģ"
      ],
      [
        "ãĢ",
        "ģ"
      ],
      [
        "å",
        "į"
      ],
      [
        "è",
        "¯"
      ],
      [
        "â",
        "Ģ"
      ],
      [
        "æĺ",
        "¯"
      ],
      [
        "ä",
        "¼"
      ],
      [
        "è",
        "®"
      ],
      [
        "å",
        "Ń"
      ],
      [
        "åľ",
        "¨"
      ],
      [
        "æ",
        "Ŀ"
      ],
      [
        "å",
        "¸"
      ],
      [
        "äº",
        "º"
      ],
      [
        "æ",
        "ī"
      ],
      [
        "æľ",
        "ī"
      ],
      [
        "ä¸",
        "į"
      ],
      [
        "å",
        "¼"
      ],
      [
        "å",
        "¥"
      ],
      [
        "é",
        "ĩ"
      ],
      [
        "äº",
        "Ĩ"
      ],
      [
        "å",
        "·"
      ],
      [
        "å",
        "Ĩ"
      ],
      [
        "å",
        "¾"
      ],
      [
        "å",
        "º"
      ],
      [
        "ä¸",
        "Ń"
      ],
      [
        "å¤",
        "§"
      ],
      [
        "å",
        "ĩ"
      ],
      [
        "å",
        "Į"
      ],
      [
        "é",
        "Ģ"
      ],
      [
        "å¹",
        "´"
      ],
      [
        "è",
        "¡"
      ],
      [
        "è",
        "Ģ"
      ],
      [
        "åĽ",
        "½"
      ],
      [
        "ç",
        "ī"
      ],
      [
        "ç",
        "Ľ"
      ],
      [
        "å",
        "¯"
      ],
      [
        "è",
        "§"
      ],
      [
        "è",
        "µ"
      ],
      [
        "ä¸",
        "º"
      ],
      [
        "å",
        "Ĵ"
      ],
      [
        "æ",
        "ķ"
      ],
      [
        "ĥ",
        "½"
      ],
      [
        "è",
        "´"
      ],
      [
        "ç",
        "İ"
      ],
      [
        "æ",
        "Ĭ"
      ],
      [
        "æ",
        "Ģ"
      ],
      [
        "ç",
        "§"
      ],
      [
        "ç",
        "º"
      ],
      [
        "æ",
        "Ķ"
      ],
      [
        "å",
        "½"
      ],
      [
        "åĴ",
        "Į"
      ],
      [
        "å",
        "±"
      ],
      [
        "æ",
        "ł"
      ],
      [
        "æ",
        "Ń"
      ],
      [
        "å",
        "İ"
      ],
      [
        "é",
        "Ļ"
      ],
      [
        "é",
        "Ĺ"
      ],
      [
        "ä¸",
        "Ĭ"
      ],
      [
        "å",
        "¿"
      ],
      [
        "æ",
        "°"
      ],
      [
        "ä¸",
        "ª"
      ],
      [
        "è",
        "ĩ"
      ],
      [
        "å",
        "ĳ"
      ],
      [
        "ä»",
        "¥"
      ],
      [
        "é",
        "Ŀ"
      ],
      [
        "æ",
        "³"
      ],
      [
        "æĹ",
        "¶"
      ],
      [
        "âĢ",
        "ľ"
      ],
      [
        "è¿",
        "Ļ"
      ],
      [
        "âĢ",
        "Ŀ"
      ],
      [
        "è",
        "½"
      ],
      [
        "æĪ",
        "ĳ"
      ],
      [
        "ä¼",
        "ļ"
      ],
      [
        "ç",
        "ľ"
      ],
      [
        "æ",
        "µ"
      ],
      [
        "æ",
        "²"
      ],
      [
        "è",
        "¦"
      ],
      [
        "ä",
        "¿"
      ],
      [
        "æ",
        "İ"
      ],
      [
        "æ",
        "ĭ"
      ],
      [
        "æĿ",
        "¥"
      ],
      [
        "æ",
        "ĥ"
      ],
      [
        "åĪ",
        "°"
      ],
      [
        "è¦",
        "ģ"
      ],
      [
        "çĶ",
        "Ł"
      ],
      [
        "ç",
        "½"
      ],
      [
        "é",
        "¢"
      ],
      [
        "åı",
        "ĳ"
      ],
      [
        "æ",
        "ŀ"
      ],
      [
        "å",
        "ĵ"
      ],
      [
        "ç",
        "Ĳ"
      ],
      [
        "åĩ",
        "º"
      ],
      [
        "2",
        "0"
      ],
      [
        "ç",
        "«"
      ],
      [
        "æ",
        "¯"
      ],
      [
        "æĹ",
        "¥"
      ],
      [
        "çĶ",
        "¨"
      ],
      [
        "è¡",
        "Į"
      ],
      [
        "å®",
        "¶"
      ],
      [
        "åŃ",
        "¦"
      ],
      [
        "è",
        "¾"
      ],
      [
        "é",
        "ĺ"
      ],
      [
        "å",
        "ī"
      ],
      [
        "åľ",
        "°"
      ],
      [
        "æĪ",
        "Ĳ"
      ],
      [
        "è",
        "ĥ½"
      ],
      [
        "ç",
        "Ń"
      ],
      [
        "å",
        "¦"
      ],
      [
        "å",
        "Ł"
      ],
      [
        "å¯",
        "¹"
      ],
      [
        "ä¸",
        "ļ"
      ],
      [
        "åı",
        "¯"
      ],
      [
        "ä½",
        "ľ"
      ],
      [
        "æ",
        "¸"
      ],
      [
        "ç",
        "¾"
      ],
      [
        "äº",
        "İ"
      ],
      [
        "ä¸",
        "ĭ"
      ],
      [
        "æ",
        "Į"
      ],
      [
        "æ",
        "¬"
      ],
      [
        "åĲ",
        "İ"
      ],
      [
        "é",
        "ģ"
      ],
      [
        "å¤",
        "ļ"
      ],
      [
        "ä»",
        "ĸ"
      ],
      [
        "æĸ",
        "°"
      ],
      [
        "æ",
        "´"
      ],
      [
        "èĩ",
        "ª"
      ],
      [
        "æ",
        "Ħ"
      ],
      [
        ".",
        "."
      ],
      [
        "å°",
        "ı"
      ],
      [
        "æ",
        "±"
      ],
      [
        "æľ",
        "Ī"
      ],
      [
        "å°",
        "±"
      ],
      [
        "åħ",
        "¬"
      ],
      [
        "æĸ",
        "¹"
      ],
      [
        "åĬ",
        "¨"
      ],
      [
        "ä»",
        "¬"
      ],
      [
        "åŃ",
        "Ĳ"
      ],
      [
        "ä¹",
        "Ł"
      ],
      [
        "åĪ",
        "Ĩ"
      ],
      [
        "ä",
        "¾"
      ],
      [
        "é",
        "«"
      ],
      [
        "é",
        "ĥ"
      ],
      [
        "è",
        "Ĥ"
      ],
      [
        "ç",
        "¬"
      ],
      [
        "å¼",
        "Ģ"
      ],
      [
        "è¿",
        "ĩ"
      ],
      [
        "é",
        "Ľ"
      ],
      [
        "é«",
        "ĺ"
      ],
      [
        "æľ",
        "¬"
      ],
      [
        "é",
        "ķ"
      ],
      [
        "æ",
        "Ľ"
      ],
      [
        "çİ",
        "°"
      ],
      [
        "å",
        "ģ"
      ],
      [
        "åħ",
        "¨"
      ],
      [
        "å·",
        "¥"
      ],
      [
        "ç¾",
        "İ"
      ],
      [
        "ä¸",
        "»"
      ],
      [
        "ç",
        "Ĥ"
      ],
      [
        "æľ",
        "º"
      ],
      [
        "ä¹",
        "ĭ"
      ],
      [
        "è",
        "·"
      ],
      [
        "å¸",
        "Ĥ"
      ],
      [
        "ç»",
        "ı"
      ],
      [
        "è",
        "ī"
      ],
      [
        "çĲ",
        "Ĩ"
      ],
      [
        "ä¸",
        "İ"
      ],
      [
        "æ",
        "ı"
      ],
      [
        "å¤",
        "©"
      ],
      [
        "ç",
        "®"
      ],
      [
        "è¿",
        "Ľ"
      ],
      [
        "æ³",
        "ķ"
      ],
      [
        "ä½",
        "ĵ"
      ],
      [
        "éĥ",
        "¨"
      ],
      [
        "éĿ",
        "¢"
      ],
      [
        "æ",
        "Ļ"
      ],
      [
        "å¥",
        "½"
      ],
      [
        "è",
        "¶"
      ],
      [
        "æľ",
        "Ģ"
      ],
      [
        "é",
        "ĥ½"
      ],
      [
        "ç½",
        "ĳ"
      ],
      [
        "åī",
        "į"
      ],
      [
        "å",
        "§"
      ],
      [
        "å",
        "Ŀ"
      ],
      [
        "åĲ",
        "Į"
      ],
      [
        "è¯",
        "´"
      ],
      [
        "åĬ",
        "Ľ"
      ],
      [
        "è",
        "°"
      ],
      [
        "å®",
        "ŀ"
      ],
      [
        "é",
        "¡"
      ],
      [
        "è",
        "ģ"
      ],
      [
        "çŃ",
        "ī"
      ],
      [
        "ç",
        "¤"
      ],
      [
        "å¾",
        "Ĺ"
      ],
      [
        "èĢ",
        "Į"
      ],
      [
        "ç",
        "Ŀ"
      ],
      [
        "æĸ",
        "ĩ"
      ],
      [
        "çĶ",
        "µ"
      ],
      [
        "ç",
        "Ł"
      ],
      [
        "äº",
        "§"
      ],
      [
        "å¿",
        "ĥ"
      ],
      [
        "å",
        "»"
      ],
      [
        "åĲ",
        "Ī"
      ],
      [
        "å¥",
        "³"
      ],
      [
        "åħ",
        "¶"
      ],
      [
        "éķ",
        "¿"
      ],
      [
        "ä½",
        "ł"
      ],
      [
        "å",
        "Ģ"
      ],
      [
        "å®",
        "ļ"
      ],
      [
        "1",
        "9"
      ],
      [
        "éģ",
        "ĵ"
      ],
      [
        "æĢ",
        "§"
      ],
      [
        "åĬ",
        "ł"
      ],
      [
        "ç¬",
        "¬"
      ],
      [
        "é",
        "Ĥ"
      ],
      [
        "ç",
        "¨"
      ],
      [
        "æ",
        "į"
      ],
      [
        "èĢ",
        "ħ"
      ],
      [
        "ç",
        "Ī"
      ],
      [
        "åĮ",
        "ĸ"
      ],
      [
        "åĮ",
        "º"
      ],
      [
        "åľ",
        "º"
      ],
      [
        "é",
        "£"
      ],
      [
        "æī",
        "Ģ"
      ],
      [
        "ç",
        "Ļ"
      ],
      [
        "äº",
        "ĭ"
      ],
      [
        "è",
        "¢"
      ],
      [
        "çľ",
        "ĭ"
      ],
      [
        "åĵ",
        "ģ"
      ],
      [
        "æĥ",
        "ħ"
      ],
      [
        "åĨ",
        "ħ"
      ],
      [
        "å¦",
        "Ĥ"
      ],
      [
        "è",
        "Ĭ"
      ],
      [
        "éĹ",
        "´"
      ],
      [
        "åħ",
        "³"
      ],
      [
        "ç",
        "©"
      ],
      [
        "éĩ",
        "į"
      ],
      [
        "å",
        "ķ"
      ],
      [
        "åº",
        "¦"
      ],
      [
        "çĤ",
        "¹"
      ],
      [
        "ç",
        "ķ"
      ],
      [
        "è¿",
        "ĺ"
      ],
      [
        "ç",
        "Ħ"
      ],
      [
        "é",
        "ļ"
      ],
      [
        "å°",
        "Ĩ"
      ],
      [
        "ç",
        "¥"
      ],
      [
        "æ",
        "ģ"
      ],
      [
        "è½",
        "¦"
      ],
      [
        "å¤",
        "ĸ"
      ],
      [
        "åĲ",
        "į"
      ],
      [
        "éĩ",
        "Į"
      ],
      [
        "ç",
        "³"
      ],
      [
        "éĢ",
        "ļ"
      ],
      [
        "è",
        "ĭ"
      ],
      [
        "ä¸",
        "ī"
      ],
      [
        "é",
        "¦"
      ],
      [
        "æī",
        "ĭ"
      ],
      [
        "èµ",
        "Ħ"
      ],
      [
        "è",
        "Ĳ"
      ],
      [
        "æ°",
        "ĳ"
      ],
      [
        "é",
        "Ķ"
      ],
      [
        "æ",
        "Ł"
      ],
      [
        "éĩ",
        "ĳ"
      ],
      [
        "å¹",
        "³"
      ],
      [
        "æı",
        "Ĳ"
      ],
      [
        "å»",
        "º"
      ],
      [
        "çī",
        "¹"
      ],
      [
        "æ",
        "¶"
      ],
      [
        "é",
        "ľ"
      ],
      [
        "åĪ",
        "¶"
      ],
      [
        "åı",
        "Ĭ"
      ],
      [
        "çĿ",
        "Ģ"
      ],
      [
        "å¾",
        "Ī"
      ],
      [
        "ä¸Ģ",
        "ä¸ª"
      ],
      [
        "å½",
        "ĵ"
      ],
      [
        "åħ",
        "¥"
      ],
      [
        "ä½",
        "į"
      ],
      [
        "åĬ",
        "¡"
      ],
      [
        "æľ",
        "Ł"
      ],
      [
        "åĳ",
        "ĺ"
      ],
      [
        "0",
        "0"
      ],
      [
        "çĦ",
        "¶"
      ],
      [
        "å",
        "¢"
      ],
      [
        "ç",
        "ł"
      ],
      [
        "æ¬",
        "¡"
      ],
      [
        "è¢",
        "«"
      ],
      [
        "æ¯",
        "Ķ"
      ],
      [
        "å±",
        "ķ"
      ],
      [
        "åĪ",
        "©"
      ],
      [
        "ãĢ",
        "ĭ"
      ],
      [
        "å",
        "£"
      ],
      [
        "ãĢ",
        "Ĭ"
      ],
      [
        "æĶ",
        "¿"
      ],
      [
        "è¡",
        "¨"
      ],
      [
        "çĽ",
        "¸"
      ],
      [
        "ç",
        "±"
      ],
      [
        "æĺ",
        "İ"
      ],
      [
        "å¹",
        "¶"
      ],
      [
        "èµ",
        "·"
      ],
      [
        "æ°",
        "´"
      ],
      [
        "åĽ",
        "ł"
      ],
      [
        "è®",
        "¾"
      ],
      [
        "ç³",
        "»"
      ],
      [
        "ç§",
        "į"
      ],
      [
        "æķ",
        "°"
      ],
      [
        "ä½",
        "Ĩ"
      ],
      [
        "ä¿",
        "Ŀ"
      ],
      [
        "é",
        "©"
      ],
      [
        "è",
        "Ī"
      ],
      [
        "æĽ",
        "´"
      ],
      [
        "æĹ",
        "ł"
      ],
      [
        "æķ",
        "Ļ"
      ],
      [
        "çī",
        "©"
      ],
      [
        "æ²",
        "¡"
      ],
      [
        "å®",
        "ī"
      ],
      [
        "çĽ",
        "®"
      ],
      [
        "è",
        "£"
      ],
      [
        "åı",
        "°"
      ],
      [
        "ä»",
        "£"
      ],
      [
        "æ",
        "·"
      ],
      [
        "æĦ",
        "ı"
      ],
      [
        "éĩ",
        "ı"
      ],
      [
        "åİ",
        "»"
      ],
      [
        "é",
        "ħ"
      ],
      [
        "ä¿",
        "¡"
      ],
      [
        "ä¸Ń",
        "åĽ½"
      ],
      [
        "å½",
        "±"
      ],
      [
        "20",
        "1"
      ],
      [
        "æŃ",
        "£"
      ],
      [
        "åı",
        "¸"
      ],
      [
        "çº",
        "¿"
      ],
      [
        "èī",
        "²"
      ],
      [
        "é",
        "Ĵ"
      ],
      [
        "æĸ",
        "¯"
      ],
      [
        "è",
        "¥"
      ],
      [
        "æŃ",
        "¤"
      ],
      [
        "ä»",
        "İ"
      ],
      [
        "æ",
        "¡"
      ],
      [
        "åº",
        "Ķ"
      ],
      [
        "ä¹",
        "Ī"
      ],
      [
        "ç",
        "´"
      ],
      [
        "é",
        "ĵ"
      ],
      [
        "è¥",
        "¿"
      ],
      [
        "è",
        "º"
      ],
      [
        "ç",
        "²"
      ],
      [
        "é",
        "»"
      ],
      [
        "ç",
        "¼"
      ],
      [
        "è",
        "ĥ"
      ],
      [
        "ç",
        "¦"
      ],
      [
        "æµ",
        "·"
      ],
      [
        "éĤ",
        "£"
      ],
      [
        "äº",
        "Ľ"
      ],
      [
        "è§",
        "Ĩ"
      ],
      [
        "åŁ",
        "º"
      ],
      [
        "åı¯",
        "ä»¥"
      ],
      [
        "ç",
        "ĥ"
      ],
      [
        "å¼",
        "ı"
      ],
      [
        "ä½",
        "¿"
      ],
      [
        "æĥ",
        "³"
      ],
      [
        "å¸",
        "¸"
      ],
      [
        "åħ",
        "ĥ"
      ],
      [
        "ç",
        "ģ"
      ],
      [
        "ç®",
        "¡"
      ],
      [
        "è®",
        "¡"
      ],
      [
        "æŀ",
        "ľ"
      ],
      [
        "æĪĳ",
        "ä»¬"
      ],
      [
        "ç¨",
        "ĭ"
      ],
      [
        "äº",
        "Į"
      ],
      [
        "èº",
        "«"
      ],
      [
        "æ",
        "¼"
      ],
      [
        "ä¸",
        "ľ"
      ],
      [
        "ä»",
        "»"
      ],
      [
        "äº",
        "¤"
      ],
      [
        "å",
        "ĸ"
      ],
      [
        "è",
        "į"
      ],
      [
        "#",
        "#"
      ],
      [
        "é",
        "ª"
      ],
      [
        "ç",
        "ĸ"
      ],
      [
        "èĢ",
        "ģ"
      ],
      [
        "è",
        "İ"
      ],
      [
        "è",
        "Ħ"
      ],
      [
        "æİ",
        "¥"
      ],
      [
        "æĪ",
        "ĺ"
      ],
      [
        "é",
        "Ł"
      ],
      [
        "è·",
        "¯"
      ],
      [
        "åİ",
        "Ł"
      ],
      [
        "ç«",
        "ĭ"
      ],
      [
        "åį",
        "ģ"
      ],
      [
        "ä¸",
        "ĸ"
      ],
      [
        "çĶ",
        "±"
      ],
      [
        "ä¸",
        "¤"
      ],
      [
        "å·",
        "²"
      ],
      [
        "ç§",
        "ĳ"
      ],
      [
        "åı",
        "£"
      ],
      [
        "æ´",
        "»"
      ],
      [
        "çī",
        "ĩ"
      ],
      [
        "ç",
        "¡"
      ],
      [
        "åĮ",
        "Ĺ"
      ],
      [
        "æł",
        "·"
      ],
      [
        "åħ¬",
        "åı¸"
      ],
      [
        "æľ",
        "į"
      ],
      [
        "éĹ",
        "¨"
      ],
      [
        "1",
        "0"
      ],
      [
        "æ",
        "º"
      ],
      [
        "éĹ",
        "®"
      ],
      [
        "æĬ",
        "¥"
      ],
      [
        "æ",
        "Ĵ"
      ],
      [
        "é¢",
        "ĺ"
      ],
      [
        "èģ",
        "Ķ"
      ],
      [
        "æĪ",
        "ĸ"
      ],
      [
        "åı",
        "ª"
      ],
      [
        "åį",
        "Ĺ"
      ],
      [
        "åģ",
        "ļ"
      ],
      [
        "ç»",
        "Ł"
      ],
      [
        "æĢ",
        "»"
      ],
      [
        "å¼",
        "º"
      ],
      [
        "éĻ",
        "¢"
      ],
      [
        "ä»",
        "¶"
      ],
      [
        "å°",
        "ĳ"
      ],
      [
        "è§",
        "£"
      ],
      [
        "å",
        "²"
      ],
      [
        "æ",
        "»"
      ],
      [
        "æ¸",
        "¸"
      ],
      [
        "åķ",
        "Ĩ"
      ],
      [
        "æĦ",
        "Ł"
      ],
      [
        "åŁ",
        "İ"
      ],
      [
        "ä¹",
        "Ĳ"
      ],
      [
        "Â",
        "·"
      ],
      [
        "çĲ",
        "ĥ"
      ],
      [
        "å",
        "¨"
      ],
      [
        "çŁ",
        "¥"
      ],
      [
        "æĬ",
        "Ģ"
      ],
      [
        "å°",
        "Ķ"
      ],
      [
        "ä¸",
        "ĩ"
      ],
      [
        "æį",
        "®"
      ],
      [
        "éĽ",
        "Ĩ"
      ],
      [
        "å",
        "ŀ"
      ],
      [
        "æĮ",
        "ģ"
      ],
      [
        "åĲ",
        "ĳ"
      ],
      [
        "æł",
        "¼"
      ],
      [
        "ç«",
        "Ļ"
      ],
      [
        "ç",
        "Ĺ"
      ],
      [
        "èĩ",
        "³"
      ],
      [
        "åĲ",
        "Ħ"
      ],
      [
        "ç»",
        "ĵ"
      ],
      [
        "æľ",
        "¯"
      ],
      [
        "è¿",
        "Ĳ"
      ],
      [
        "åĽ",
        "ŀ"
      ],
      [
        "æ",
        "Ĥ"
      ],
      [
        "åĽ",
        "¾"
      ],
      [
        "æµ",
        "ģ"
      ],
      [
        "çĽ",
        "´"
      ],
      [
        "å·",
        "±"
      ],
      [
        "çľ",
        "Ł"
      ],
      [
        "è®",
        "©"
      ],
      [
        "æĶ",
        "¾"
      ],
      [
        "åĨ",
        "Ľ"
      ],
      [
        "åħ",
        "±"
      ],
      [
        "ç",
        "ĭ"
      ],
      [
        "æī",
        "ĵ"
      ],
      [
        "é£",
        "İ"
      ],
      [
        "ä¼",
        "ł"
      ],
      [
        "æ",
        "£"
      ],
      [
        "è®",
        "°"
      ],
      [
        "åı",
        "Ĺ"
      ],
      [
        "èĩª",
        "å·±"
      ],
      [
        "å±",
        "±"
      ],
      [
        "å¯",
        "¼"
      ],
      [
        "éĢ",
        "ī"
      ],
      [
        "å¸",
        "ĥ"
      ],
      [
        "å¤",
        "´"
      ],
      [
        "ç¤",
        "¾"
      ],
      [
        "çĪ",
        "±"
      ],
      [
        "å·¥",
        "ä½ľ"
      ],
      [
        "åį",
        "ķ"
      ],
      [
        "é©",
        "¬"
      ],
      [
        "æ²¡",
        "æľī"
      ],
      [
        "æ°",
        "Ķ"
      ],
      [
        "è",
        "Ļ"
      ],
      [
        "ä»",
        "·"
      ],
      [
        "å¤",
        "Ħ"
      ],
      [
        "åħ",
        "ĭ"
      ],
      [
        "å",
        "Ķ"
      ],
      [
        "çº",
        "§"
      ],
      [
        "ä¸",
        "ĵ"
      ],
      [
        "è´",
        "¹"
      ],
      [
        "å¸",
        "Ī"
      ],
      [
        "ç»",
        "Ļ"
      ],
      [
        "ç¤",
        "º"
      ],
      [
        "äº",
        "ļ"
      ],
      [
        "æĶ",
        "¶"
      ],
      [
        "æł",
        "ĩ"
      ],
      [
        "åĪ",
        "Ľ"
      ],
      [
        "åĪ",
        "«"
      ],
      [
        "å¥",
        "¹"
      ],
      [
        "è¿",
        "ĳ"
      ],
      [
        "åı",
        "ĺ"
      ],
      [
        "åį",
        "İ"
      ],
      [
        "è§",
        "Ħ"
      ],
      [
        "å®",
        "Į"
      ],
      [
        "è¾",
        "¾"
      ],
      [
        "å¾",
        "·"
      ],
      [
        "ç»",
        "Ħ"
      ],
      [
        "éľ",
        "Ģ"
      ],
      [
        "è´",
        "¨"
      ],
      [
        "æ±",
        "Ĥ"
      ],
      [
        "æİ",
        "¨"
      ],
      [
        "è°",
        "ĥ"
      ],
      [
        "ç¥",
        "ŀ"
      ],
      [
        "âĢ",
        "Ķ"
      ],
      [
        "æ",
        "®"
      ],
      [
        "æĺ",
        "Ł"
      ],
      [
        "æº",
        "Ĳ"
      ],
      [
        "æĶ",
        "¹"
      ],
      [
        "éĢ",
        "ł"
      ],
      [
        "ç±",
        "»"
      ],
      [
        "åĽ",
        "Ľ"
      ],
      [
        "æ²",
        "»"
      ],
      [
        "éĺ",
        "Ł"
      ],
      [
        "æ",
        "¨"
      ],
      [
        "æ¸",
        "ħ"
      ],
      [
        "çķ",
        "Į"
      ],
      [
        "æĪ",
        "·"
      ],
      [
        "åħ",
        "Ī"
      ],
      [
        "çĻ",
        "½"
      ],
      [
        "åŀ",
        "ĭ"
      ],
      [
        "å¸",
        "¦"
      ],
      [
        "æĮ",
        "ĩ"
      ],
      [
        "è¯",
        "¥"
      ],
      [
        "è®",
        "¤"
      ],
      [
        "çİ",
        "ĭ"
      ],
      [
        "ä¼",
        "ģ"
      ],
      [
        "åıĳ",
        "å±ķ"
      ],
      [
        "è¯",
        "Ŀ"
      ],
      [
        "åħ",
        "ī"
      ],
      [
        "è",
        "Į"
      ],
      [
        "ä¹",
        "¦"
      ],
      [
        "åı",
        "·"
      ],
      [
        "å¿",
        "«"
      ],
      [
        "èµ",
        "Ľ"
      ],
      [
        "å",
        "Ļ"
      ],
      [
        "é¢",
        "Ĩ"
      ],
      [
        "ç©",
        "º"
      ],
      [
        "æĭ",
        "ī"
      ],
      [
        "æ",
        "¹"
      ],
      [
        "é¡",
        "¹"
      ],
      [
        "å·",
        "ŀ"
      ],
      [
        "å¹",
        "¿"
      ],
      [
        "æĬ",
        "ķ"
      ],
      [
        "éĿ",
        "ŀ"
      ],
      [
        "ä»",
        "Ĭ"
      ],
      [
        "å¢",
        "ŀ"
      ],
      [
        "ç§",
        "°"
      ],
      [
        "æ",
        "¢"
      ],
      [
        "æķ",
        "´"
      ],
      [
        "åĮ",
        "ħ"
      ],
      [
        "æ¯",
        "ı"
      ],
      [
        "æ",
        "ĳ"
      ],
      [
        "èĬ",
        "Ĥ"
      ],
      [
        "e",
        "r"
      ],
      [
        "èĤ",
        "²"
      ],
      [
        "è",
        "±"
      ],
      [
        "..",
        ".."
      ],
      [
        "å®",
        "¢"
      ],
      [
        "çł",
        "Ķ"
      ],
      [
        "å¤",
        "ª"
      ],
      [
        "åħ",
        "·"
      ],
      [
        "1",
        "2"
      ],
      [
        "ä»",
        "Ģ"
      ],
      [
        "ç²",
        "¾"
      ],
      [
        "æĬ",
        "Ĭ"
      ],
      [
        "åĨ",
        "į"
      ],
      [
        "å¤",
        "ĩ"
      ],
      [
        "æģ",
        "¯"
      ],
      [
        "åı",
        "ĭ"
      ],
      [
        "çº",
        "¦"
      ],
      [
        "å®",
        "¹"
      ],
      [
        "è§",
        "Ĥ"
      ],
      [
        "i",
        "n"
      ],
      [
        "æ³",
        "¨"
      ],
      [
        "æĿ",
        "ĥ"
      ],
      [
        "ç",
        "ħ"
      ],
      [
        "è®",
        "®"
      ],
      [
        "ã",
        "ģ"
      ],
      [
        "ä¾",
        "Ľ"
      ],
      [
        "è£",
        "ħ"
      ],
      [
        "å½",
        "¢"
      ],
      [
        "è®",
        "º"
      ],
      [
        "è¯",
        "Ń"
      ],
      [
        "é¦",
        "ĸ"
      ],
      [
        "åħ",
        "ļ"
      ],
      [
        "æĹ¶",
        "éĹ´"
      ],
      [
        "åĬ",
        "ŀ"
      ],
      [
        "è¿Ľ",
        "è¡Į"
      ],
      [
        "æĶ",
        "¯"
      ],
      [
        "æĪ",
        "¿"
      ],
      [
        "æľį",
        "åĬ¡"
      ],
      [
        "åĽ",
        "¢"
      ],
      [
        "ç¾İ",
        "åĽ½"
      ],
      [
        "åĻ",
        "¨"
      ],
      [
        "æł",
        "¡"
      ],
      [
        "åı",
        "ĸ"
      ],
      [
        "æī",
        "į"
      ],
      [
        "å",
        "Ħ"
      ],
      [
        "æĸ",
        "Ļ"
      ],
      [
        "äº",
        "¬"
      ],
      [
        "è½",
        "¬"
      ],
      [
        "åĮ",
        "»"
      ],
      [
        "ä¼ģ",
        "ä¸ļ"
      ],
      [
        "çī",
        "Ī"
      ],
      [
        "é",
        "¥"
      ],
      [
        "èĢ",
        "ĥ"
      ],
      [
        "è§",
        "ģ"
      ],
      [
        "çĶ",
        "·"
      ],
      [
        "1",
        "1"
      ],
      [
        "æĴ",
        "Ń"
      ],
      [
        "æĺ",
        "ĵ"
      ],
      [
        "èĲ",
        "¥"
      ],
      [
        "éĻ",
        "ħ"
      ],
      [
        "çľ",
        "ģ"
      ],
      [
        "æķ",
        "Ī"
      ],
      [
        "ãĢĤ",
        "âĢĿ"
      ],
      [
        "ä»ĸ",
        "ä»¬"
      ],
      [
        "ä½",
        "ķ"
      ],
      [
        "éŁ",
        "³"
      ],
      [
        "èĬ",
        "±"
      ],
      [
        "a",
        "n"
      ],
      [
        "è¯",
        "ģ"
      ],
      [
        "æŁ",
        "¥"
      ],
      [
        "æ·",
        "±"
      ],
      [
        "åı",
        "Ī"
      ],
      [
        "è",
        "ĳ"
      ],
      [
        "åĳ",
        "¨"
      ],
      [
        "åı",
        "Ĥ"
      ],
      [
        "ä¼",
        "ĺ"
      ],
      [
        "å¼",
        "ł"
      ],
      [
        "æ¼",
        "Ķ"
      ],
      [
        "è¶",
        "ħ"
      ],
      [
        "å§",
        "Ķ"
      ],
      [
        "åĨ",
        "³"
      ],
      [
        "o",
        "n"
      ],
      [
        "ç",
        "ı"
      ],
      [
        "20",
        "0"
      ],
      [
        "å®",
        "ĥ"
      ],
      [
        "å°±",
        "æĺ¯"
      ],
      [
        "æŃ",
        "¥"
      ],
      [
        "å§",
        "ĭ"
      ],
      [
        "å£",
        "«"
      ],
      [
        "å±",
        "Ģ"
      ],
      [
        "èĭ",
        "±"
      ],
      [
        "åĩ",
        "Ĩ"
      ],
      [
        "é¢",
        "ĳ"
      ],
      [
        "éĹ®",
        "é¢ĺ"
      ],
      [
        "æ",
        "ħ"
      ],
      [
        "åĦ",
        "¿"
      ],
      [
        "ç",
        "Ĭ"
      ],
      [
        "åı",
        "į"
      ],
      [
        "åĩ",
        "ł"
      ],
      [
        "äº",
        "Ķ"
      ],
      [
        "å",
        "ĭ"
      ],
      [
        "æĿ",
        "¡"
      ],
      [
        "æ¨",
        "¡"
      ],
      [
        "éĢ",
        "Ł"
      ],
      [
        "æ¶",
        "Ī"
      ],
      [
        "ã",
        "ĥ"
      ],
      [
        "1",
        "8"
      ],
      [
        "ä¹",
        "ī"
      ],
      [
        "æ",
        "Ĳ"
      ],
      [
        "è",
        "ħ"
      ],
      [
        "æľ",
        "ª"
      ],
      [
        "å",
        "ĥ"
      ],
      [
        "çĻ",
        "¾"
      ],
      [
        "åĬ",
        "Ł"
      ],
      [
        "ç¡",
        "®"
      ],
      [
        "ç»",
        "Ń"
[...]
